[PAD]
[UNK]
[MASK]
[CLS]
[SEP]
"
,
.
0
1
2
3
4
5
6
7
8
9
[
]
a
b
c
d
e
f
g
h
i
j
k
l
m
n
o
p
q
r
s
t
u
v
w
x
y
z
¡
£
¤
§
©
«
®
°
·
»
æ
ð
ø
þ
א
ג
ו
י
כ
ל
מ
ן
ר
–
‘
’
“
”
′
⁄
▼
、

the
and
of
to
is
in
it
this
that
was
as
with
for
movie
but
film
on
you
not
are
his
have
be
he
one
its
at
all
by
an
they
who
from
so
like
her
or
just
##s
about
if
out
has
there
some
what
good
when
more
very
even
no
my
she
up
time
would
which
only
really
see
their
story
were
can
had
me
well
than
much
we
been
also
bad
get
do
great
will
other
him
people
because
into
how
most
first
dont
movies
them
then
films
made
way
make
too
could
characters
any
after
think
watch
many
seen
being
character
never
two
love
acting
plot
where
did
know
best
show
little
life
ever
does
better
your
off
end
say
over
these
here
still
scene
why
man
scenes
while
something
such
im
go
through
should
back
those
thing
real
watching
now
years
actors
didnt
doesnt
another
though
funny
before
work
actually
nothing
makes
find
look
same
going
new
few
every
lot
old
again
part
cant
director
things
thats
want
pretty
cast
quite
us
young
down
world
seems
got
around
however
fact
enough
take
thought
give
both
horror
ive
big
own
may
between
music
always
isnt
right
without
times
gets
long
almost
saw
comedy
role
come
series
must
interesting
point
theres
original
done
least
whole
guy
far
action
bit
hes
since
script
anything
feel
am
might
minutes
last
family
probably
kind
##ing
yet
away
performance
sure
worst
tv
fun
rather
our
anyone
each
found
girl
played
##ed
having
although
making
trying
woman
believe
day
shows
especially
course
everything
different
dvd
hard
comes
maybe
worth
place
ending
goes
once
put
looking
book
main
reason
sense
set
screen
looks
10
play
effects
##ly
three
wasnt
watched
together
job
money
true
instead
later
someone
plays
actor
during
said
everyone
beautiful
special
takes
audience
himself
seeing
american
excellent
seem
version
left
night
john
war
idea
black
shot
##d
fan
simply
high
else
youre
nice
wife
house
used
poor
death
completely
friends
kids
help
read
##e
along
either
short
home
men
second
less
mind
##y
half
star
try
classic
year
boring
use
production
given
enjoy
stupid
wrong
need
next
performances
line
start
rest
hollywood
until
dead
##a
truly
recommend
couple
terrible
tell
women
awful
father
others
remember
understand
school
mean
getting
camera
perhaps
moments
wonderful
came
full
let
budget
sex
video
keep
itself
playing
name
definitely
gives
perfect
episode
doing
stars
often
face
human
guys
top
dialogue
couldnt
piece
##er
small
become
early
head
person
yes
absolutely
case
entertaining
mr
title
certainly
finally
lines
liked
worse
went
hope
felt
lost
entire
oh
supposed
sort
picture
boy
mother
style
laugh
loved
problem
overall
written
fans
cinema
several
live
waste
children
against
shes
youll
friend
guess
sound
beginning
humor
totally
care
throughout
lives
based
wont
wanted
despite
already
example
game
low
final
direction
unfortunately
seemed
dark
evil
id
lead
becomes
drama
called
history
girls
days
white
turn
horrible
works
able
amazing
quality
michael
wants
fine
past
car
writing
theyre
under
expect
flick
turns
kill
tries
etc
side
brilliant
favorite
son
behind
killer
eyes
enjoyed
matter
parts
stuff
obviously
act
town
gave
##o
sometimes
run
starts
actress
ones
art
themselves
anyway
genre
viewer
##t
city
heart
killed
hell
late
myself
group
ill
highly
soon
says
directed
heard
took
thinking
child
stories
decent
##i
happens
moment
experience
score
blood
hour
except
##r
feeling
fight
cannot
extremely
kid
told
leave
police
chance
lack
##n
god
please
wonder
hilarious
type
coming
involved
roles
happened
close
cool
happen
violence
daughter
ok
strong
shown
voice
obvious
taken
hand
particularly
save
wouldnt
saying
song
attempt
serious
stop
exactly
living
including
ago
james
looked
sad
complete
across
robert
reality
huge
murder
number
alone
crap
relationship
known
lets
usually
possible
annoying
seriously
david
opening
simple
hours
today
career
gore
none
wish
jokes
cinematography
yourself
hit
interest
age
ridiculous
ends
brother
released
cut
change
talent
started
view
whose
running
documentary
major
slow
female
usual
english
body
turned
power
beyond
order
husband
hero
shots
novel
mostly
knows
taking
words
somewhat
call
finds
basically
opinion
silly
##ness
important
country
strange
knew
attention
jack
disappointed
word
problems
##es
scary
apparently
room
happy
clearly
rating
musical
upon
episodes
arent
level
cheap
due
sequence
british
talking
four
local
whats
television
single
talk
whether
events
modern
miss
directors
review
mention
entertainment
tells
light
sequel
songs
tried
soundtrack
george
havent
giving
enjoyable
predictable
similar
appears
above
bring
french
sets
add
viewers
easily
falls
earth
ten
dialog
lots
storyline
showing
comic
thriller
hate
future
bunch
needs
filmed
moving
writer
supporting
clear
five
within
sorry
message
space
king
certain
parents
release
among
romantic
buy
dull
fall
doubt
middle
subject
named
theme
theater
suspense
dr
elements
ways
team
tale
gone
okay
editing
fantastic
deal
easy
lady
kept
rock
check
near
nearly
using
surprised
somehow
stay
typical
monster
80s
greatest
effort
sister
imagine
comments
peter
brought
actual
herself
working
general
feels
realistic
viewing
avoid
die
begins
points
wait
believable
means
surprise
feature
forget
boys
mystery
move
class
form
material
period
##l
straight
richard
youve
rent
crime
hear
famous
leads
premise
eye
weak
lame
tom
red
figure
atmosphere
animation
particular
killing
fast
follow
learn
indeed
reviews
york
paul
sequences
whos
expected
screenplay
shame
decided
sit
became
meet
situation
truth
whatever
dog
dance
stand
eventually
average
footage
leaves
forced
oscar
poorly
third
memorable
season
imdb
emotional
hands
begin
question
reading
possibly
sexual
credits
island
western
keeps
romance
quickly
cheesy
features
needed
note
comment
sounds
difficult
doctor
unless
interested
plus
crew
gay
meets
society
total
##on
deep
male
lee
minute
otherwise
scifi
write
personal
superb
open
nature
filmmakers
masterpiece
nor
result
hot
battle
writers
background
older
earlier
joe
copy
mess
box
america
towards
inside
weird
previous
realize
effect
incredibly
beauty
laughs
perfectly
whom
street
japanese
pay
20
air
de
stage
badly
appear
dumb
various
unique
crazy
free
reasons
setting
70s
business
mark
spent
ask
joke
apart
front
##in
acted
dramatic
following
ideas
secret
worked
##man
development
remake
admit
powerful
wasted
brings
cover
fire
fairly
manages
meant
twist
creepy
outside
return
water
baby
political
missing
agree
leading
caught
plenty
directing
recently
forward
##ers
##h
attempts
fails
william
create
missed
dream
party
portrayed
success
##m
ended
gun
cute
cop
bill
brothers
deserves
expecting
pure
further
rich
spoilers
married
break
clever
present
era
fighting
plain
potential
created
large
odd
unlike
disney
incredible
fantasy
nudity
telling
considering
hardly
laughing
waiting
cartoon
german
members
slightly
died
van
list
state
talented
sees
girlfriend
popular
speak
pace
hold
public
decides
escape
italian
match
cause
casting
entirely
familiar
store
sadly
scott
office
flat
value
la
uses
visual
audiences
sweet
villain
compared
century
company
fit
yeah
trouble
follows
zombie
convincing
credit
producers
train
wrote
mentioned
bored
alive
former
moves
biggest
portrayal
tension
younger
college
cold
neither
intelligent
produced
language
science
12
dancing
fear
suddenly
amount
choice
common
rate
appreciate
successful
bizarre
amusing
##al
genius
sick
band
effective
project
spend
focus
garbage
pointless
kills
pathetic
recommended
hair
accent
exciting
aside
charles
longer
awesome
consider
honest
violent
questions
social
recent
basic
leaving
positive
thanks
situations
respect
soldiers
mad
jane
decide
solid
force
honestly
showed
15
fake
touch
values
involving
ultimately
bought
depth
revenge
##and
runs
concept
culture
filled
werent
literally
brain
failed
images
likes
barely
singing
sitting
bother
christmas
immediately
control
win
bed
conclusion
fair
humour
alien
master
purpose
somewhere
trash
30
ability
shooting
##k
gang
adult
impossible
sexy
spirit
100
explain
nobody
books
considered
changed
studio
channel
glad
disturbing
fiction
impressive
sam
chemistry
meaning
starring
pick
tough
adventure
normal
road
planet
surprisingly
nowhere
silent
mood
twists
vampire
jim
week
slasher
thinks
camp
south
government
pictures
taste
drug
journey
walk
mary
shoot
added
blue
##g
appearance
issues
terms
chase
cult
park
subtle
presented
ben
magic
appeal
trip
available
laughable
lovely
naked
west
utterly
cinematic
natural
frank
personally
remains
cat
standard
animated
generally
managed
prison
##an
costumes
stick
adaptation
london
presence
cliche
places
touching
pieces
beautifully
besides
chris
date
won
charming
comedies
likely
photography
harry
catch
door
tone
innocent
plan
suppose
thrown
critics
disappointing
intended
paris
outstanding
computer
army
makeup
rare
ride
scenery
wow
hey
tony
spoiler
aspect
detective
excuse
thus
complex
terrific
unbelievable
building
historical
military
stands
steve
bottom
knowing
thank
forever
smart
attack
equally
ghost
minor
giant
##like
changes
filming
loves
mysterious
constantly
emotions
club
walking
everybody
hoping
jones
justice
slowly
cry
finish
pass
self
contains
edge
names
painful
soul
wild
acts
boyfriend
brief
producer
##ie
law
surely
race
##en
opportunity
cops
land
students
victim
fell
festival
support
victims
dreams
fascinating
narrative
opera
youd
bond
faces
ray
zombies
climax
dad
hurt
central
details
manner
woods
pain
agent
finding
smith
makers
throw
indian
feelings
folks
hospital
include
random
track
aspects
sent
flicks
offer
disappointment
green
notice
themes
##ic
fully
mistake
expectations
exception
mainly
mans
stunning
tired
impression
charlie
drugs
funniest
charm
confusing
affair
approach
billy
machine
answer
##p
cliches
emotion
heavy
lived
speaking
ahead
confused
fresh
helps
loud
million
motion
##u
marriage
puts
color
supposedly
award
image
rated
dies
falling
holes
##able
born
##is
adds
appeared
martin
paid
suggest
therefore
batman
followed
happening
ugly
adults
putting
twice
##ies
americans
ed
lover
element
share
wondering
location
student
gem
laughed
seemingly
phone
pull
teen
bruce
relationships
church
90
christopher
content
likable
dirty
trailer
impact
mix
summer
lacks
compelling
extreme
ready
ship
soldier
developed
shock
vs
allowed
gorgeous
grade
industry
merely
onto
rented
tragedy
animals
area
lighting
difference
information
mediocre
ms
games
led
filmmaking
hasnt
stewart
becoming
forgotten
system
count
creative
delivers
flaws
grace
beat
boss
don
listen
worthy
absolute
negative
stuck
six
apartment
damn
torture
##le
anymore
deliver
key
offers
porn
spot
##c
murders
picked
whatsoever
reminded
detail
henry
kelly
bar
ii
lies
mom
moved
standards
captain
russian
super
compare
imagination
disaster
hotel
impressed
intense
teenage
news
provides
direct
drive
drawn
fashion
plane
suicide
##us
describe
shouldnt
latter
moral
nasty
states
accident
attractive
began
collection
shocking
wooden
creature
event
thoroughly
bloody
cgi
radio
returns
afraid
seven
actresses
fat
proves
epic
quick
artistic
childhood
christian
clothes
helped
personality
professional
turning
fellow
ground
jerry
lose
search
tragic
wanting
wearing
##the
angry
commentary
held
hidden
independent
jason
scientist
##ist
asked
asks
numbers
teacher
todays
kevin
monsters
mouth
inspired
seconds
suspect
actions
000
comedic
continue
food
calls
realized
sea
process
station
pleasure
60s
passion
provide
accept
anybody
extra
horse
surprising
theatre
favourite
flying
intelligence
introduced
wars
addition
anywhere
jackson
rarely
sucks
zero
intriguing
member
struggle
animal
arts
noir
sleep
blame
dying
energy
redeeming
superior
watchable
##ity
queen
##rs
holds
gold
judge
necessary
physical
rape
williams
##b
bits
dangerous
pop
step
tears
carry
discover
mike
thomas
memory
mine
hated
50
jr
willing
martial
scared
chinese
deserve
villains
creating
fox
stephen
treat
trust
accurate
sat
deeply
heroes
includes
lord
wall
artist
##z
plots
unusual
vhs
wonderfully
##ian
double
filmmaker
golden
nicely
tim
joy
serial
sight
understanding
design
allow
explanation
unknown
desert
humans
leader
warning
##or
field
heads
memories
ryan
driving
opposite
player
hitchcock
lovers
thin
apparent
captured
criminal
mrs
responsible
somebody
according
loving
met
remarkable
stock
grand
limited
uncle
explained
growing
danny
occasionally
wind
learned
ring
starting
vision
hits
murdered
ordinary
technical
humanity
locations
months
references
smile
treated
al
bigger
community
connection
shop
tape
alan
eddie
reminds
absurd
cars
exist
friendship
board
desperate
faith
jean
officer
current
generation
johnny
legend
loose
moon
noticed
originally
roll
wood
anne
boat
issue
jennifer
normally
players
broken
efforts
lacking
pacing
prove
unnecessary
hadnt
mental
##ia
eat
religious
bob
engaging
floor
mission
mixed
saving
survive
##ism
##ling
brown
genuine
below
build
constant
guns
powers
rubbish
stone
whilst
##ry
brian
brutal
howard
keeping
academy
gags
instance
sean
comparison
finished
hopes
morning
knowledge
loss
partner
whenever
witty
bland
dressed
gary
humorous
magnificent
national
weve
##less
fights
gotten
nonsense
pilot
##ish
finest
heres
record
sheer
singer
1010
australian
crappy
killers
manage
adam
cuts
deserved
president
blind
page
pulled
capture
england
foreign
genuinely
streets
forces
toward
arthur
bright
european
lowbudget
numerous
remembered
castle
featuring
realism
##ch
dealing
deals
fail
naturally
price
window
youth
advice
river
terribly
fame
frankly
higher
length
spanish
##ment
heroine
sisters
skip
cable
included
scream
talents
unrealistic
allen
favor
kinda
media
reach
behavior
concerned
davis
dreadful
max
psychological
desire
fly
insane
joan
logic
program
revealed
satire
attitude
buddy
jeff
results
underrated
drunk
irritating
meanwhile
stereotypes
40
aware
cross
discovered
jimmy
nightmare
teenagers
##x
pair
private
quiet
visit
wedding
##it
reviewers
douglas
essentially
miles
opens
conflict
debut
sing
##as
##ion
aliens
classics
ran
relate
unfunny
contrived
dated
finale
##ized
##te
anthony
ball
identity
moore
nick
sucked
ultimate
witch
context
failure
fate
perspective
robin
theaters
creatures
gory
international
julie
native
screaming
utter
village
breaks
empty
grow
lousy
received
regular
1950s
90s
discovers
feet
luck
reaction
saved
skills
study
cartoons
ford
frame
freedom
gonna
taylor
unable
unexpected
bodies
decade
described
existence
fault
pretentious
range
recall
##ting
evidence
levels
priest
spectacular
texas
vampires
visuals
choose
commercial
edited
endless
ice
lesson
lucky
meeting
owner
peoples
portray
steven
suit
test
france
heaven
rules
shallow
soap
vote
andy
bomb
jump
parody
theyve
winning
worlds
strength
assume
fred
post
relief
##ation
delightful
embarrassing
wide
combination
curious
provided
sign
visually
promise
site
alice
continues
proved
twenty
##nt
asking
cameo
clean
standing
teenager
fill
formula
treatment
walked
##ally
author
awkward
crash
eric
overly
##el
##f
flashbacks
protagonist
sequels
50s
crowd
handsome
kick
cost
costs
decision
develop
eating
graphic
nevertheless
sky
types
cash
ladies
seat
sudden
terror
united
wit
believes
corny
creates
evening
louis
product
blonde
brilliantly
capable
steal
tedious
viewed
facts
involves
lewis
religion
1970s
barbara
cliched
grew
laughter
loses
rental
##ne
##os
dick
disgusting
dollars
entertained
heck
hunter
largely
north
sheriff
soft
travel
trek
delivered
destroy
gene
halloween
pleasant
shakespeare
wayne
wise
ages
allows
dogs
matters
caused
chick
drag
hall
rise
steals
cares
clue
correct
gangster
marry
plans
research
holmes
reviewer
alex
ass
bringing
center
proper
stopped
twisted
europe
rose
spoil
sympathetic
vehicle
bet
driver
emotionally
executed
portrays
slapstick
enemy
matt
tiny
##up
built
depressing
flesh
japan
round
sell
speech
studios
##ts
hearing
segment
surface
versions
bank
candy
chief
circumstances
spends
walks
larry
sake
talks
ann
contrast
individual
majority
mask
produce
remain
surreal
voices
##ine
ancient
beach
bear
department
dubbed
families
hopefully
network
paper
rescue
strongly
technology
till
asian
contemporary
losing
patrick
speed
witness
awards
dan
gratuitous
insult
model
theatrical
thoughts
turkey
##re
daughters
excited
horribly
shocked
fathers
lake
naive
propaganda
speaks
subtitles
virtually
810
danger
politics
qualities
rob
ruined
weeks
enter
football
grown
passed
recognize
universal
bmovie
devil
influence
keaton
pity
##ful
##w
dennis
teens
anna
core
display
donald
harris
harsh
jesus
learns
send
uk
710
amateurish
conversation
factor
fits
germany
kong
service
accents
albert
category
chosen
committed
darkness
offensive
traditional
##ted
asleep
cage
extras
morgan
nominated
25
appropriate
haunting
hill
holding
joseph
portraying
relatively
veteran
exploitation
jackie
previously
suffering
##ey
granted
robot
saturday
skin
thankfully
11
410
angel
costume
deadly
elizabeth
##ter
fool
hunt
sports
amateur
claim
forgot
latest
lesbian
source
westerns
##land
blow
excitement
serves
variety
california
dude
market
obsessed
satisfying
section
surprises
appealing
experienced
guilty
sharp
sympathy
welcome
winner
abuse
claims
destroyed
dry
promising
storytelling
target
wilson
angles
calling
chose
convince
dean
edward
experiences
table
unfortunate
13
broadway
demons
haunted
patient
practically
professor
refreshing
seasons
statement
##th
continuity
degree
draw
everywhere
extraordinary
minds
rule
structure
substance
universe
encounter
initial
interview
kate
underground
urban
wear
##ton
artists
bbc
believed
closer
deaths
depicted
peace
canadian
exact
forth
friday
highlight
overthetop
prince
seagal
suffers
africa
captures
crying
painfully
reveal
roy
superman
tend
worthwhile
aka
eight
handled
johnson
mountain
psycho
scare
supernatural
touches
truck
accidentally
anderson
belief
featured
junk
lifetime
presents
raised
roberts
routine
russell
sons
suspenseful
breaking
childrens
expression
favorites
foot
halfway
lane
lynch
mickey
performed
prior
stereotypical
washington
gordon
praise
bothered
idiot
insight
mildly
quirky
security
effectively
figured
magical
massive
nonetheless
parker
pulls
regarding
reveals
sides
spoof
##ley
##out
african
campy
directly
miniseries
movement
reporter
spy
stolen
summary
warm
adventures
aint
print
serve
trilogy
alright
closing
colors
cutting
decades
designed
flashback
hanging
hide
kiss
mistakes
nurse
passing
renting
roger
2001
amazingly
anime
cruel
fare
fish
gritty
legendary
lower
narration
prepared
safe
##ge
##ty
drop
express
irish
realizes
rip
ripoff
device
jungle
lights
lisa
scale
stranger
trapped
focused
indie
prime
regret
vietnam
walter
demon
execution
interviews
laura
proud
weekend
baseball
covered
grant
mainstream
path
required
sun
via
bus
couldve
critical
frightening
pile
placed
betty
imagery
kane
repeated
rough
stays
subplot
technically
welles
##he
##ier
##ns
andor
blah
blockbuster
erotic
occasional
racism
sitcom
sounded
throwing
unlikely
##ping
1980s
abandoned
deeper
drew
hat
hitler
listening
position
simon
sir
sorts
account
amongst
downright
false
flight
grave
melodrama
novels
served
southern
wouldve
anger
angle
atrocious
carries
charge
dracula
east
massacre
necessarily
princess
rain
remotely
struggling
weapons
##ra
310
figures
fourth
julia
ludicrous
uninteresting
buying
delivery
jail
shadow
teeth
whoever
##men
brooks
china
depiction
dozen
environment
goofy
kinds
mgm
paying
productions
seek
training
attempting
causes
chan
desperately
greater
jewish
lonely
mob
protagonists
status
suck
writerdirector
##2
##na
arrives
inner
lie
racist
reputation
rights
suffer
tarzan
treasure
views
warned
amazed
arms
comical
convinced
dollar
dress
examples
flow
forgettable
hole
nude
scenario
understood
910
cell
helping
inspiration
lawyer
learning
raw
sunday
timing
chaplin
driven
focuses
funnier
ignore
initially
join
offered
originality
rings
tales
task
usa
##ive
answers
cultural
daniel
heavily
medical
pregnant
properly
spite
throws
tommy
unconvincing
110
achieve
cowboy
curse
forest
hence
oliver
shorts
##1
##ant
carried
confusion
dinner
facial
murphy
purely
reference
tight
##but
##led
##ous
experiment
explains
matrix
mexican
separate
succeeds
vacation
beloved
choices
code
criticism
fabulous
mothers
multiple
prefer
related
reminiscent
san
wins
##st
adding
appreciated
bugs
combined
complicated
court
india
intellectual
jobs
notable
paced
ruin
sensitive
##ck
base
birth
breathtaking
dare
drives
fbi
gruesome
kim
wwii
authentic
brave
contain
description
entertain
format
scripts
shut
albeit
arm
carrying
catherine
drinking
hoffman
lazy
madness
picks
screening
balance
concert
fu
host
inept
introduction
letting
murderer
nights
obnoxious
scares
stupidity
term
theory
##ize
blown
civil
glass
guessing
hed
mature
mere
reynolds
sarah
significant
skill
st
stayed
bore
caring
daily
eastwood
everyday
nuclear
rolling
scientists
##ce
attacked
cheese
graphics
hired
jay
regard
remote
sleeping
sold
tree
werewolf
##ve
assistant
barry
cooper
crude
disbelief
drink
greek
nonexistent
risk
woody
bollywood
columbo
gas
guest
helen
innocence
lessons
millions
paint
starred
union
wealthy
basis
changing
intensity
internet
lying
revolves
ron
susan
exceptional
ghosts
ironic
regardless
sinister
technique
touched
wears
##son
embarrassed
gripping
happiness
hood
metal
revolution
weapon
whereas
##est
chilling
comedian
entry
fallen
friendly
handle
perfection
strangely
afternoon
credible
sum
wolf
ashamed
enjoying
expressions
faithful
hearts
jon
nowadays
struggles
techniques
victor
attacks
australia
controversial
disagree
exists
extent
quest
raise
thousands
tradition
##v
accepted
escapes
flawed
greatly
horrific
idiotic
marvelous
punch
settings
sleazy
stealing
steps
thief
toy
##ar
hundred
titles
tune
burt
clark
determined
franchise
gross
miller
perform
rival
trial
##ke
##ons
dear
imaginative
manager
noted
plastic
sends
sexuality
shines
##ner
challenge
condition
frequently
germans
league
opened
rachel
screenwriter
stomach
storm
14
appearances
appearing
attempted
courage
letter
nazis
sings
stunts
topic
vincent
warner
chair
chases
creation
delight
dislike
fictional
flaw
hint
karen
mentally
needless
ripped
suggests
ted
useless
angels
credibility
honor
italy
silence
videos
##ll
1930s
bag
blair
fortunately
irony
jamie
ninja
performers
poignant
presentation
ratings
riding
tense
##et
advantage
breath
cases
chuck
contact
cynical
established
guard
interpretation
jessica
mirror
mst3k
proof
sally
searching
socalled
stan
stops
stylish
succeed
briefly
cameron
cousin
dragon
ha
jumps
le
leslie
obsession
tour
##ng
boredom
caine
concerns
happily
michelle
oddly
replaced
sutherland
tribute
##les
aired
atmospheric
belongs
consists
glimpse
incident
instantly
jonathan
mindless
pool
retarded
von
wanna
beast
brad
clips
countries
essential
kennedy
protect
saves
shed
slight
snakes
suffered
surrounding
1960s
aunt
cameos
dave
guide
intentions
luke
monkey
nazi
oneliners
par
repeat
santa
soviet
specific
thrillers
unforgettable
womans
broke
bucks
convey
enjoyment
grim
guts
hardy
investigation
kidnapped
lovable
non
shoots
suits
troubled
wasting
alas
competent
expert
farm
gods
hiding
homage
indians
nine
ourselves
solve
trick
adapted
arnold
bitter
burns
gotta
rush
shall
spoken
tricks
beings
birthday
buck
identify
maria
musicals
pulp
teach
bound
forgive
hang
opposed
outer
powell
trap
##ging
2005
busy
equal
hong
kung
los
refuses
shadows
sinatra
sword
thrilling
upset
##at
##ble
##iness
achieved
attraction
bobby
checking
criminals
dramas
revelation
rogers
striking
territory
thousand
walker
wallace
##se
ad
basement
colorful
exercise
importantly
legs
magazine
midnight
norman
successfully
wishes
worry
accused
com
connected
corner
crafted
horses
locked
nation
shower
spending
subplots
torn
attracted
bridge
fx
hundreds
ignored
kicks
mouse
redemption
row
seeking
spots
stood
warn
chicago
crimes
dealt
holiday
horrors
korean
object
personalities
returning
split
struck
text
tied
##by
chasing
gag
infamous
lloyd
mexico
miserably
nose
notch
quote
revealing
smoking
snake
snow
souls
threw
uninspired
acceptable
bat
commit
destruction
dialogs
dvds
encounters
highlights
individuals
jumping
persons
physically
remind
shortly
toilet
wave
##0
##co
##la
##ta
battles
dawn
diane
eerie
elderly
faced
husbands
intention
mel
overcome
portrait
rid
suspects
victoria
2006
80
blows
britain
cabin
card
catholic
competition
dragged
emily
jerk
lucy
masters
nancy
per
raped
selling
silver
talked
45
admire
alexander
ambitious
bible
flash
mass
pride
##ate
##ee
##looking
18
20th
alike
andrews
blade
closely
commercials
concerning
cure
farce
glory
hooked
hoped
hype
lacked
piano
profound
scarlett
stole
waters
zone
1st
30s
annoyed
argue
freddy
holly
hysterical
laid
oscars
sophisticated
travels
wicked
##ped
##well
210
breasts
cinderella
develops
doctors
emma
expensive
grows
guilt
importance
laurel
meaningful
outrageous
oz
relevant
rushed
stanwyck
stretch
typically
99
appalling
countless
dubbing
essence
horrendous
invisible
miscast
plague
ralph
stunt
superbly
wake
##5
##izing
##to
17
2000
beer
characterization
elsewhere
fulci
hills
meat
notorious
performing
precious
reallife
repetitive
savage
sexually
tremendous
trite
##ro
afterwards
areas
carl
colour
engaged
evident
foster
iii
marie
occurs
packed
pat
providing
repeatedly
setup
shape
string
subjects
trail
ward
##ls
anyways
cardboard
closeups
discovery
ensemble
fortune
gothic
hunting
kings
loser
mid
month
navy
pacino
pet
pink
puppet
smoke
staff
surrounded
theyd
##ably
bone
celluloid
daring
doors
frustrated
gain
hardcore
linda
nearby
neighborhood
outcome
prevent
rocks
strictly
uncomfortable
##ma
aged
bell
charisma
clint
consequences
corrupt
dinosaurs
ian
increasingly
lesser
library
mansion
neat
neck
philip
reasonable
restaurant
stanley
thrills
timeless
web
altogether
beating
believing
brilliance
burn
creators
drags
flynn
gift
goal
idiots
knife
kudos
lone
melodramatic
minimal
oil
planning
sentimental
spare
tall
virgin
##de
##do
##ka
40s
associated
brand
bullets
camerawork
carefully
complaint
conspiracy
definite
displays
endearing
hip
incoherent
marks
notes
photographed
pleased
sub
thumbs
tunes
unintentionally
willis
##no
brazil
christ
couples
dancer
digital
disease
em
ex
generous
health
interaction
mitchell
pack
possessed
push
represents
rick
segments
sidney
sin
trade
wondered
##ding
##ur
airplane
allowing
backdrop
bird
bruno
cats
curiosity
delivering
directorial
documentaries
easier
extended
gray
heist
huh
maker
neighbor
persona
poverty
response
shining
watches
##tion
burton
careers
freeman
genres
hammer
heroic
intent
loosely
notably
overlooked
pulling
shoes
strangers
weight
##ated
##red
agents
broad
chances
demands
dig
eve
fancy
hbo
possibility
projects
randy
reasonably
remaining
russia
survival
tortured
##da
andrew
beaten
bergman
buried
bush
distance
dropped
fears
frankenstein
goodness
grandfather
groups
hal
handful
hire
inevitable
ironically
itll
medium
motivation
offended
predator
theyll
threat
unpleasant
arrive
attached
blues
burned
cave
chaos
citizen
coach
detailed
devoted
distant
doll
fairy
frankie
hitting
horrid
insulting
intrigued
lawrence
matthau
receive
secondly
shark
shy
swear
thirty
titanic
trio
university
##ating
##off
##ss
aimed
beats
clues
currently
flawless
hatred
kidding
killings
lugosi
menacing
noble
officers
overrated
poster
reactions
realise
resolution
terrorist
wonders
worthless
##ary
##nce
airport
antics
bare
broadcast
causing
disjointed
factory
finger
fitting
furthermore
holy
involvement
luckily
lyrics
picking
pointed
ranks
stated
strip
tracks
wrestling
accomplished
afford
aforementioned
bears
bin
burning
charismatic
continued
cook
critic
depression
dire
fifteen
godfather
grey
mario
merit
mild
noise
ocean
pitt
pushed
subsequent
upper
virus
2004
admittedly
bates
bathroom
discussion
draws
enters
freak
messages
overacting
painting
planned
press
requires
returned
sidekick
swedish
synopsis
tons
vague
wannabe
amanda
bands
button
carpenter
combat
commented
covers
dedicated
duke
explosions
jealous
narrator
scripted
size
sole
spoiled
strikes
terrifying
warrior
##ious
##yearold
audio
comfortable
crisis
escaped
glenn
heat
logical
occur
presumably
sadness
secretary
someones
spin
throat
ups
##um
ah
cried
dialogues
explicit
gentle
hitchcocks
intrigue
isolated
judging
kitchen
pitch
secrets
walls
wreck
cassavetes
dorothy
drivel
eccentric
fired
grandmother
installment
ireland
larger
liking
lou
matthew
motives
politically
porno
sport
stinker
todd
unwatchable
valley
winter
##field
angela
argument
baker
connect
contrary
conventional
duty
elaborate
empire
forms
hamlet
headed
nelson
partly
recognition
resembles
stooges
thrill
wet
##age
##ard
##ial
1940s
bottle
builds
butt
chain
cia
copies
corpse
craft
devoid
explaining
inspector
inspiring
listed
murray
pie
preview
prostitute
removed
ridiculously
sentence
spell
spike
sticks
stronger
##ha
blank
bleak
brains
claire
conversations
curtis
darker
differences
doomed
existed
highest
jazz
landscape
overdone
pleasantly
prisoners
satan
stiff
##am
abilities
adams
alltime
blatant
blend
classical
con
hopper
hudson
junior
lifestyle
odds
official
relative
reunion
rita
root
rural
slightest
streep
strike
turner
unbelievably
wine
##one
adequate
agreed
arrogant
cheating
connery
duo
fatal
fields
gradually
implausible
mafia
mile
myers
offering
pays
philosophy
popcorn
primarily
racial
signs
superficial
traveling
##minute
##ri
absence
achievement
affected
blacks
boot
closed
cole
disturbed
errors
generic
jeremy
ken
loads
margaret
museum
nightmares
notion
photographer
rendition
roman
sandra
specifically
staying
trees
vegas
wax
wrapped
24
cameras
cared
complain
davies
decisions
diamond
eighties
estate
fond
ideal
innovative
juvenile
liberal
load
mustsee
newspaper
occurred
passes
passionate
primary
punk
screams
ships
spiritual
spooky
tame
titled
twin
undoubtedly
yesterday
##line
barney
benefit
clown
composed
damage
editor
imagined
lab
maintain
mixture
morality
onscreen
ought
pants
prisoner
psychotic
reached
recorded
selfish
tank
unoriginal
wing
ya
##ens
##ised
60
angeles
bride
closet
convoluted
cup
education
fooled
harder
improved
lion
miserable
neil
nonstop
proceedings
producing
recognized
tarantino
unbearable
yellow
##id
##ities
##ps
canada
cringe
drunken
enormous
et
eva
explored
forbidden
gangsters
illegal
inventive
investigate
jake
meaningless
provoking
reduced
relies
shine
squad
symbolism
vast
versus
##iest
##ler
##movie
1999
blake
buster
carol
executive
franco
grab
guests
homeless
influenced
khan
kirk
measure
misses
movements
obscure
purchase
report
scientific
shelf
similarly
tea
terrorists
##ged
16
album
arrested
bette
captivating
carter
dating
doc
emphasis
equipment
financial
instant
involve
lol
manhattan
poetry
reaches
revolutionary
subtlety
tear
translation
worried
##li
##ning
2002
911
beneath
blond
buddies
chicken
classes
coffee
comics
dignity
disc
dynamic
explosion
focusing
funeral
giallo
homosexual
immensely
impress
justin
kicked
murderous
patients
plant
reed
represent
ruins
sadistic
shirley
sloppy
smaller
solely
spring
stellar
teaching
threatening
ticket
tie
website
##ks
##ville
2007
2nd
510
aging
amounts
block
buff
bullet
cliff
considerable
contract
exaggerated
jeffrey
kurt
lighthearted
models
occasion
principal
rank
staged
tongue
##3
##il
##ure
##way
accompanied
crack
endings
houses
keith
menace
shell
simplistic
walken
wore
##its
1980
abc
advance
alfred
calm
catches
cinematographer
clumsy
deliberately
everyones
leg
namely
ned
nicole
orders
population
pretend
satisfied
scheme
survivors
unintentional
wished
arrived
campbell
chest
childish
command
downhill
enemies
florida
guessed
justify
leonard
limits
lips
method
owen
penn
rage
rotten
sandler
annie
bridges
coast
convincingly
cruise
disappoint
explore
failing
fix
garden
honesty
hugh
karate
norris
practice
resort
ruth
splendid
user
##house
##who
2003
agrees
austen
carmen
clothing
consistent
craig
ears
exposed
flies
fonda
hook
introduces
iron
progress
psychiatrist
rooms
similarities
slick
spielberg
stereotype
##head
##wood
abysmal
advise
alternative
bronson
cards
channels
charlotte
colonel
crucial
derek
dolls
fighter
flop
heartwarming
hideous
historically
hollywoods
kubrick
laughably
mentioning
mtv
pretending
rabbit
resemblance
rising
sacrifice
taught
timothy
vicious
winds
workers
americas
assassin
blew
bonus
borrowed
buildings
cannibal
coherent
crystal
depicts
depressed
disappeared
dust
eager
ease
francisco
hanks
marketing
mate
montage
nostalgia
overwhelming
performer
props
sits
staring
styles
temple
tracy
##8
##time
adorable
advertising
alongside
bold
careful
companion
consistently
drawing
drops
garfield
harvey
hates
josh
knight
knock
lincoln
mistaken
pops
premiere
punishment
pushing
robbery
solo
spirits
superhero
tends
thick
tonight
trained
trashy
witnessed
##ily
##ization
##lo
belong
border
comparing
edgar
fingers
futuristic
hamilton
incompetent
link
madefortv
neighbors
onedimensional
parties
patricia
potentially
priceless
puppets
smooth
stevens
suitable
tad
vivid
voiceover
##der
##ger
amy
che
citizens
combine
composer
conditions
defend
descent
describes
destiny
distracting
earned
hilariously
hitch
mars
masterful
mistress
nomination
phrase
portion
reflection
suggested
treats
urge
writes
##ki
##lin
1995
affection
aid
cheated
dances
despair
directs
duck
dutch
eaten
francis
improve
mummy
nonsensical
ranger
responsibility
ruthless
shake
showcase
slap
topless
uneven
vengeance
virginia
widow
##4
##6
brutally
countryside
creativity
dancers
frustrating
joel
lay
marion
opinions
plausible
prom
purposes
quotes
reflect
remarkably
survived
surviving
thoughtful
tribe
unfolds
valuable
wounded
##me
##ze
circle
cleverly
corruption
damme
developing
dinosaur
faster
fed
folk
grasp
helicopter
karloff
lately
les
mayor
scarecrow
scores
tender
terry
toys
triumph
underlying
wishing
##per
3rd
choreography
cinemas
claude
contained
ego
ellen
embarrassment
enjoys
exotic
gate
graham
madonna
mason
mountains
raymond
riveting
seeks
succeeded
traffic
wound
##ists
##ky
andre
arrival
behave
blowing
communist
cusack
discuss
divorce
faults
lucas
nicholson
pg13
proceeds
quinn
rap
relatives
switch
teachers
ties
##hip
##tes
1972
armed
boris
bud
bull
carrey
chased
complaining
crush
desired
displayed
drake
edition
glasses
guarantee
hollow
illness
jaws
marty
mysteries
pages
poetic
rolled
seventies
species
square
stilted
travesty
warmth
winters
##go
##ise
bo
butler
constructed
contest
desperation
dozens
eats
electric
floating
greatness
hints
ignorant
lust
painted
parallel
patience
react
schools
stark
suited
tag
thugs
##down
##va
##year
3d
apes
carrie
circus
depicting
eastern
educational
endure
generations
handed
horrifying
hurts
macy
mighty
misery
paranoia
philosophical
ponyo
progresses
questionable
refused
retired
sand
sarandon
solution
testament
twins
tyler
underworld
wandering
weakest
wes
##ms
backgrounds
bourne
brando
cake
dame
doug
dreary
equivalent
heartbreaking
incomprehensible
monkeys
moody
motivations
noone
parent
passable
photo
popularity
prize
relations
rocky
senses
shirt
steel
trailers
transformation
vaguely
wells
wisdom
##bly
##fest
##ff
1990s
authority
awe
awhile
banned
bath
blast
boll
counts
dimension
disappear
ensues
feast
felix
formulaic
glorious
introduce
journalist
kingdom
loyal
martha
meryl
musicians
online
prey
pun
relation
remained
settle
sincere
stinks
wealth
wives
##tte
3000
absent
alcohol
arguably
artificial
atlantis
awake
buffs
claimed
conceived
cox
defense
demand
dimensional
elegant
elvis
emperor
enthusiasm
fought
guitar
inappropriate
intimate
june
moreover
promises
rebel
recording
rubber
runner
scope
softcore
spread
sunshine
tomorrow
useful
widescreen
##gs
##sh
alternate
astonishing
attitudes
avoided
enterprise
exchange
frequent
frost
frustration
griffith
jose
lasted
letters
lit
marshall
mayhem
minimum
nyc
passengers
possibilities
prejudice
property
realizing
scottish
shakespeares
slave
swimming
thoughtprovoking
transition
twilight
voiced
womens
##ay
##ell
##ent
##ible
##ins
##ver
35
civilization
discovering
donna
excessive
facing
garbo
gifted
harmless
hart
kyle
loneliness
mankind
march
masses
morris
musician
objective
outfit
peak
phil
promised
safety
sappy
simpsons
slaughter
spaghetti
standout
straightforward
sullivan
tourist
triangle
vulnerable
watson
wifes
##type
13th
alert
appreciation
assault
behaviour
beware
brooklyn
celebrity
challenging
costar
ear
fest
flair
grotesque
ingredients
irrelevant
nicholas
ordered
reel
rely
spoke
suspicious
tastes
teaches
tiresome
transfer
understated
unfair
warren
wouldbe
1983
ali
bang
catching
christians
closest
clueless
comedians
defeat
desires
differently
edgy
elephant
engage
experimental
familys
femme
greg
hokey
joins
kicking
kitty
lands
legal
methods
nerd
nuts
referred
rex
tripe
troops
unit
venice
##not
00
1969
agenda
baldwin
bedroom
bite
bumbling
cancer
cities
climactic
cream
dickens
glover
hung
hunters
illogical
inferior
intentionally
lengthy
machines
pearl
pig
pitiful
resist
senseless
severe
shoulder
sink
sounding
spacey
stuart
surfing
twelve
wacky
wellknown
willie
worker
##ide
1993
capturing
chainsaw
chorus
defined
dresses
firstly
injured
kathy
mini
nervous
phony
psychic
pursuit
quit
remarks
resulting
rides
roots
saga
sheen
sixties
stale
streisand
understandable
vice
voyage
waited
wheres
##io
activities
aussie
bernard
biography
birds
cg
coincidence
concern
controlled
correctly
dalton
disliked
experiments
falk
hackneyed
heading
hughes
inane
jesse
jews
landing
loaded
maggie
mentions
mode
muppet
nightclub
releases
represented
rocket
romp
royal
rupert
secondary
seldom
splatter
unlikable
unsettling
visiting
##film
1996
affairs
betrayal
bones
branagh
cagney
campaign
cannon
carradine
cd
centers
co
compelled
confess
construction
corporate
crossing
da
damned
divine
evans
firm
global
hopeless
household
improvement
jet
likewise
noises
overlook
perry
purple
rat
reaching
robinson
rude
spain
stunned
teams
trademark
unpredictable
witnesses
worn
yelling
##9
##dy
##ring
##which
##ya
1971
advanced
analysis
balls
beliefs
boxing
challenged
crisp
deranged
favour
greed
integrity
judy
kissing
laws
literature
metaphor
middleaged
muppets
mute
nostalgic
owners
panic
positively
pressure
raises
receives
samuel
severely
spirited
topnotch
waves
wed
##7
##ir
1979
accurately
adaptations
bay
capital
conan
distinct
females
foul
gus
harold
harrison
imitation
joined
lily
messed
ross
shortcomings
showdown
sung
thru
troma
unhappy
##ds
##rd
19th
asylum
chicks
conflicts
crawford
credited
exploration
fantasies
fascinated
gems
hack
lance
lock
mundane
niro
paradise
pete
phantom
randomly
recycled
rendered
respected
richards
robots
samurai
simultaneously
soccer
wig
wizard
##ance
##boy
##ned
1968
accuracy
appropriately
assassination
assigned
bravo
checked
clip
companies
complaints
cope
cuba
cube
dentist
el
exorcist
fiance
ginger
hers
joey
kramer
leigh
lively
manipulative
molly
monty
natalie
objects
overlong
package
pal
performs
realised
screens
sleaze
smiling
sneak
subjected
towns
tracking
troubles
unfold
uplifting
wagon
##ded
##ical
##my
##ny
##this
##ys
additional
bean
childs
choppy
destroying
dylan
fashioned
fay
guards
investigating
jealousy
legacy
lowest
matches
misleading
moronic
newman
operation
pot
presenting
pro
purchased
realm
reeves
resemble
satisfy
skeleton
stress
sue
visible
visits
voight
##ko
##ming
##ries
##ties
acid
affect
antonio
awfully
bam
chapter
conrad
cruelty
debate
derivative
diana
difficulties
disappears
exceptions
expressed
feed
grief
inevitably
inspire
iraq
minus
muddled
prepare
region
require
robbins
sunny
viewings
wholly
wildly
##bs
##oo
##ti
abused
abusive
ambition
belushi
blunt
casts
chooses
confrontation
corpses
demonstrates
describing
doubts
empathy
exposition
foxx
golf
heavens
holocaust
hungry
imaginary
insanity
jordan
miracle
nemesis
orson
pale
profession
quaid
resources
rome
secretly
singers
stumbled
ugh
yep
##woman
1984
1997
23
70
access
addiction
apocalypse
astaire
bunny
casual
chess
chills
computers
dates
delicate
disgusted
encourage
entitled
erika
exceptionally
exposure
feelgood
forcing
gentleman
heston
icon
interestingly
items
jackass
jenny
jewel
jill
lackluster
landscapes
leo
meg
merits
net
recommendation
roof
shares
sometime
stranded
supported
trend
underwater
vein
wings
##ans
##istic
##ja
1981
75
adopted
aim
argento
banal
bargain
biased
carpenters
cary
choreographed
concepts
creator
daddy
dee
demented
disneys
fifty
gloria
grainy
hello
hitman
invites
lemmon
lifted
maid
mildred
minister
miyazaki
montana
odyssey
pan
posted
preachy
reader
regards
rourke
screenwriters
signed
subpar
symbolic
tops
visions
weakness
widely
##all
##king
##ni
1987
acceptance
agency
april
assumed
authorities
bombs
casey
closeup
containing
conviction
darn
diehard
doom
employed
evidently
explores
filler
function
generated
hank
homer
incidentally
invited
letdown
lift
literary
murdering
nations
occasions
penguin
replace
salman
shaking
shouting
sooner
stores
tap
unaware
velvet
widmark
##ba
##ham
##mer
##ney
##py
address
amusement
aspiring
celebration
comfort
complexity
designs
dirt
ernest
fever
gerard
grabs
heroin
heros
hostage
ignorance
imaginable
inability
interests
julian
knocked
las
nails
newly
obligatory
outing
petty
photos
repeating
restored
scooby
servant
shaw
shouldve
simmons
simpson
someday
static
suffice
swim
underneath
unexpectedly
unreal
walsh
##med
##wise
abrupt
acclaimed
accomplish
active
altered
amused
austin
ballet
boom
brenda
catchy
charged
confront
conservative
damon
daniels
devices
directions
fascination
fifth
frances
ghoulies
girlfriends
grudge
humble
invasion
jumped
locals
macbeth
nail
nolan
opportunities
peters
polish
polished
precisely
previews
rates
respectable
richardson
sending
significance
technicolor
turkish
whale
##faced
##her
##j
##un
accounts
addict
anyones
attorney
babe
babies
bela
biopic
brady
christina
communicate
completed
crazed
demise
exquisite
flashes
godzilla
hangs
harm
inexplicably
jarring
juliet
jury
lauren
limit
minority
myth
outfits
planes
poem
primitive
readers
regarded
resident
ronald
standup
strings
survives
suspension
taxi
thread
venture
voodoo
wilderness
witches
##den
##esque
##hi
##kin
##tic
ambiguous
angst
astounding
attacking
basketball
beverly
btw
caricature
chuckle
colin
confidence
critters
custer
denzel
evolution
hindi
hippie
hoot
inaccurate
invented
irene
keen
liners
located
mall
messy
min
owns
poison
portrayals
raising
remade
rises
screwed
shoddy
specially
spock
stiller
sums
tacky
tail
undead
virtual
vulgar
warriors
wong
1990
akin
altman
barrymore
behold
bmovies
carey
challenges
christine
debbie
definition
del
elvira
filling
filth
hilarity
lees
loyalty
maniac
map
masks
mentality
northern
orange
owned
paranoid
partners
pit
policeman
prominent
rooney
ruby
september
slice
unexplained
unseen
vibrant
##ah
##nd
1989
95
adolescent
beside
blatantly
bonnie
cemetery
commander
conscience
coupled
deceased
drinks
farfetched
feat
gabriel
goodbye
groundbreaking
gypsy
losers
mercy
milk
mixing
nbc
origin
paranormal
politicians
psychology
shared
studies
sublime
supply
survivor
thompson
uwe
wakes
walt
wardrobe
##ball
##be
##ina
##ot
##style
1939
aaron
alcoholic
bars
beatles
busey
devils
disgrace
disguise
exploring
factors
fiancee
fools
gangs
greedy
guaranteed
haines
insipid
internal
lasts
latin
mail
mann
marvel
morals
plight
posters
puzzle
randolph
reads
records
referring
rejected
remakes
respectively
ritter
scotland
seymour
shaky
shopping
strongest
studying
tiger
traits
tramp
transformed
understands
vince
weaknesses
##girl
##if
##work
1970
abruptly
aids
berlin
boots
bros
brutality
centered
cheek
crashes
deaf
decline
deleted
depends
deserted
dreck
earl
elses
eternal
ethnic
hearted
heights
hyde
inconsistent
kenneth
label
males
melting
option
partially
phillips
predecessor
remove
schlock
spark
surgery
ta
wretched
yawn
1982
ape
boasts
bug
businessman
considerably
continually
costars
demonic
distribution
elevator
email
entering
errol
error
freaks
hayes
hayworth
historic
insists
iv
judgment
leaders
lush
macho
masterpieces
modest
motorcycle
offbeat
quentin
rangers
recognizable
relax
resolved
respective
rifle
shootout
sticking
stones
uncut
voted
youtube
##di
##ising
##with
1973
4th
ants
bullock
carlos
compassion
compete
consideration
creep
dallas
doris
duration
forgiven
furious
fury
healthy
helpless
homosexuality
iconic
identical
ie
interactions
kidman
kidnapping
michaels
monk
mutant
nope
orleans
overbearing
pacific
paintings
paramount
psychopath
pushes
restrained
riot
saint
simplicity
snowman
spencer
strengths
supreme
swept
topics
unlikeable
woo
##ite
##izes
##ld
##room
adore
assuming
bounty
bow
canceled
championship
clay
couch
craven
dealer
detectives
diaz
dysfunctional
energetic
forty
gal
homes
hopelessly
jacksons
jaded
lasting
lunch
mill
motive
natives
nod
olds
orchestra
outright
parade
playboy
pray
prequel
provocative
ps
quietly
rapidly
receiving
refer
reflects
separated
shore
silliness
sitcoms
smiles
statue
stretched
surroundings
tasteless
terminator
threatens
wagner
wellmade
wellwritten
youngest
##ca
##rt
addicted
authors
barrel
befriends
boxer
concentrate
defeated
deserving
difficulty
disgust
dressing
dropping
dud
exploding
fatale
fi
fifties
flower
frightened
frozen
gentlemen
habit
hapless
huston
immediate
infected
info
lois
mins
moses
muslim
nut
painter
poker
preferred
preposterous
promote
races
ranch
reluctant
rod
russians
sellers
shorter
siblings
skits
skull
stumbles
stunningly
subtly
suspend
thieves
trains
translated
uniformly
victorian
victory
vital
wesley
whites
windows
wrap
bent
brainless
cents
champion
convinces
crocodile
depending
destroys
disastrous
domestic
dose
downey
egyptian
fires
gromit
hammy
heartfelt
instinct
layers
li
meal
milo
nicolas
pg
proving
refuse
rochester
route
sandy
sergeant
sopranos
stairs
terrified
vastly
veterans
weather
wounds
yard
##more
1978
approaching
asia
christie
clone
conclude
connections
conveniently
cooking
cue
dawson
devastating
discussing
distraction
domino
drove
emerge
emerges
engrossing
fisher
gender
georges
hears
ho
intentional
isabelle
ladder
lucille
marked
mates
niece
ol
pattern
redeem
roommate
rope
sailor
shoulders
sincerely
sketch
snipes
snuff
soup
studied
toronto
vain
valentine
##ford
##im
101
1933
1977
amazon
camcorder
commenting
confident
conveys
corey
decidedly
despicable
elite
eugene
firmly
formed
frog
gambling
goldberg
goods
handles
hats
homicide
immature
insightful
intro
kansas
kapoor
lena
leon
morally
morbid
moron
moviegoers
norm
olivia
ollie
phenomenon
pretends
profanity
programme
refers
russo
satirical
scariest
sid
snl
spectacle
steady
suburban
sydney
taped
thrust
towers
wendy
##ening
##ker
##ory
##tive
##world
1959
activity
admirable
alley
anyhow
approached
assignment
attend
audition
bills
caliber
cannes
clooney
crawl
depths
destination
disabled
edit
establish
examination
fishing
freaking
gained
gates
gather
grateful
helpful
hides
immortal
ingenious
labor
lastly
linked
liv
longest
marine
marries
matched
mechanical
misguided
overblown
payoff
pierce
principle
rave
reign
representation
rooting
safely
sale
sarcastic
selection
stages
stopping
telephone
waitress
welldone
##ice
##mi
##sing
1976
1988
200
21st
absurdity
assure
backwards
bitch
budgets
cleaning
colleagues
convicted
corman
dillon
fist
gandhi
glowing
growth
handling
havoc
justified
lionel
minded
montgomery
nerves
palace
pirates
rambo
rusty
seedy
sensible
sharing
sht
spiderman
syndrome
threatened
thrilled
toni
travis
uh
vehicles
votes
wanders
waynes
youthful
##ji
abraham
accepts
afghanistan
afterward
arriving
avid
biblical
boston
buffalo
bw
chopped
claustrophobic
combines
complications
costello
county
crippled
cultures
cushing
dana
delightfully
designer
dump
earn
edie
escaping
eventual
eyre
fastpaced
fog
fortunate
framed
glance
globe
grabbed
ham
hires
housewife
incidents
kidnap
lifeless
lifes
monroe
ny
pirate
pleasing
pole
preparing
racing
scratch
sherlock
sparks
speeches
stabbed
tapes
washed
##ber
##ence
##ino
##ments
##ors
##ters
1945
22
adaption
akshay
almighty
answered
ashley
breakfast
breed
brosnan
candidate
caricatures
clan
dread
entirety
extensive
fills
firing
fluff
followup
frames
gorilla
gregory
grip
height
hugely
incest
indication
inherent
jacket
legends
license
likeable
lip
nephew
oldest
paulie
penny
pfeiffer
phenomenal
preston
psyche
pursued
quarter
renee
reports
rhett
rhythm
screw
shanghai
shelley
showtime
slimy
spree
steer
suggestion
suspicion
tempted
travolta
trivia
tunnel
wastes
wtf
##based
##ga
##han
##ified
##mans
##mp
##op
##rated
##that
##ves
1998
alec
axe
bettie
billed
burst
characterizations
clouds
commits
communication
continuing
conventions
cycle
danish
demanding
doo
dumped
enthusiastic
entries
ethan
expects
freaky
fulcis
funding
gable
galaxy
gaps
gere
grass
indiana
informative
insurance
invention
kungfu
newcomer
nominations
phillip
pounds
predict
punches
queens
rebellious
reminder
reward
rewarding
romero
sci
screwball
sentiment
serving
spaceship
stare
strict
stylized
tactics
tomatoes
ton
tower
unsympathetic
users
##ability
##especially
##light
##ut
1974
affleck
anytime
arab
arc
arrest
arthouse
artsy
artwork
backstory
bike
biker
blob
breakdown
cafe
cattle
characteristics
collins
colours
columbia
convenient
deliberate
earnest
enhanced
expose
flashy
gestures
godawful
handheld
informed
interact
israel
istanbul
item
juliette
kermit
keys
leather
lend
lowe
nolte
nun
outdated
pam
passage
peculiar
postwar
programs
remembers
seeming
soso
stroke
suitably
translate
tremendously
ultra
unrelated
vile
visited
weaker
wider
wilder
##bad
##berg
##mo
##ster
##tyle
1994
300
500
ace
apply
bowl
centre
cheer
choosing
christianity
chronicles
claiming
collect
comprehend
contributed
contribution
counter
cracking
damaged
departure
devito
disorder
duvall
endlessly
expedition
ghetto
haunt
highway
hippies
hopkins
implied
independence
industrial
inhabitants
insights
institution
insults
intensely
jersey
legitimate
lethal
longing
macarthur
maximum
mens
organization
pause
paxton
physics
pilots
plotting
practical
raging
rats
repressed
reruns
residents
senior
spies
startling
steam
suspected
symbol
tcm
tendency
trials
tube
upside
warming
wartime
wheel
##ates
##headed
##ked
##lan
##sed
##tory
##za
1986
aboard
associate
attract
authenticity
balanced
begging
bogart
bonds
bridget
bully
cab
contribute
cookie
corn
cow
delicious
deniro
destined
expense
exterior
flowers
gilbert
glamorous
goals
hercules
hilton
idol
ingrid
isolation
jess
kellys
leap
limitations
lola
lowkey
mccoy
medieval
mesmerizing
miranda
modesty
morons
olivier
originals
origins
outline
paints
peck
plants
posing
prot
re
remembering
ripping
sara
seasoned
shift
sickening
subway
swing
sympathize
token
unsatisfying
viewpoint
wellacted
wwe
##horror
##ini
##nes
abbott
additionally
affecting
aircraft
alicia
appeals
arguments
automatically
backs
cassidy
clubs
coffin
critique
cyborg
darren
diner
dolph
dove
downfall
eh
explode
farrell
frantic
glued
goodlooking
incorrect
inspirational
interior
july
kinnear
lonesome
marlon
misfortune
netflix
overboard
pad
pizza
profoundly
rebels
salt
shades
sissy
slim
springer
stardom
stuffed
switched
undercover
underwear
unimaginative
verdict
vocal
volume
whore
xfiles
##ese
##eyed
##lly
##made
##minded
##of
##om
##town
##zing
1950
2008
applied
bach
bacon
beg
boone
boyle
brooding
buys
chucky
clive
collective
confronted
danes
delighted
deputy
determination
dilemma
dubious
dustin
educated
entered
estranged
eternity
existing
exit
farmer
feminist
flimsy
glimpses
grayson
horny
inexplicable
interviewed
jaw
johns
jude
korea
liar
lynn
mannerisms
meantime
midst
naughty
ohara
oldfashioned
praised
protection
pursue
qualify
rampage
realistically
regularly
relentless
respond
ricci
rivers
roth
samantha
sanders
satisfaction
sharon
smell
sorely
stalking
subsequently
subtext
sucker
sundance
swearing
tolerable
uniform
vanessa
vignettes
yours
19
acknowledge
acquired
admission
amidst
approaches
assured
avoiding
believability
bishop
bittersweet
campus
casino
cigarette
clunky
cons
crashing
czech
dealers
definitive
disco
dismal
distracted
document
drab
fontaine
fords
foundation
gear
gimmick
heels
hk
hulk
israeli
kris
kumar
masterfully
miike
monkees
mouths
nathan
offscreen
ominous
otto
pedestrian
photographs
pornography
portman
poses
products
publicity
questioning
rebecca
reflected
repulsive
rescued
respects
rolls
settled
severed
sinking
slashers
theatres
tip
tokyo
trace
unattractive
understatement
whining
wire
wisely
##american
##cing
##even
##ick
##ow
##ris
##tor
##ual
1936
1975
accessible
affects
babes
barker
bread
carnival
chop
clock
commitment
compliment
convention
dads
deny
detract
disguised
divorced
dramatically
dub
ebay
edison
egg
everett
exclusively
fluid
giants
grinch
hooker
immense
immigrant
inclined
insist
introducing
karl
lends
manners
medicine
meteor
mitchum
mock
moe
novak
owes
paltrow
parking
rainy
rejects
rightly
rugby
seats
selected
sixth
skilled
slapped
slide
theories
tickets
unsuspecting
vintage
vomit
##day
##so
##ured
1940
1991
absorbing
ala
alison
applaud
beatty
biting
booth
cameraman
carell
circles
cobb
conveyed
covering
deer
depict
divided
downs
dragons
expectation
explosive
filthy
foolish
frontier
garland
harrowing
hartley
henchmen
hogan
inclusion
indifferent
intricate
judged
judges
longtime
ma
mick
monologue
neatly
neurotic
niven
obsessive
packs
peaceful
possesses
predictably
pros
raines
ramon
realities
redneck
reliable
resume
romeo
rory
salesman
sang
scored
seductive
session
sly
span
stumble
thereby
threads
tossed
troopers
turd
un
valid
variation
varied
wayans
##ad
##ering
##ess
##ions
##lli
##nts
##ran
##ten
34
aesthetic
africanamerican
aiming
amitabh
anticipation
armstrong
arty
assembled
belt
betrayed
bitten
bust
butcher
chaplins
clerk
comparisons
courtesy
creek
criticize
dazzling
discussed
eleven
embrace
en
entrance
evokes
experiencing
exploits
fade
farley
fuel
garner
goldie
graveyard
grounds
heavyhanded
hybrid
kline
logan
looney
madison
madsen
millionaire
novelty
nuanced
organized
palance
pamela
pimp
piper
plodding
possession
reagan
realization
replies
reviewed
ritual
robocop
seed
sells
sentimentality
sergio
shatner
spiral
stargate
stephanie
swinging
targets
tongueincheek
um
unanswered
underdeveloped
whiny
witnessing
yearold
##ana
##ations
##au
##good
##ification
##rate
##tt
abomination
achieves
arrow
assumes
attended
austens
banter
cells
characterisation
clarke
cries
curly
dahmer
demonstrate
despise
diverse
drill
dynamite
eagle
eastwoods
economic
elm
embarrassingly
establishing
exploited
fierce
flavor
fuzzy
garage
gibson
graves
gut
horrified
improbable
incapable
interrupted
joanna
laurence
lavish
literal
locate
louise
mud
mysteriously
mythology
nerve
nifty
norma
pierre
planets
politician
popping
principals
radical
reverse
rewarded
ricky
routines
scenarios
scorsese
segal
slip
stream
suggesting
switches
titular
tool
triple
undeniably
unnatural
wander
##ai
##ct
##hood
##ore
##que
##you
accepting
addressed
admiration
advertised
aftermath
ambiguity
architect
arguing
ark
aztec
billing
boobs
centuries
cheaply
coat
confuse
consciousness
consequently
copied
defies
define
der
des
dominated
edwards
engine
enhance
ensure
excellence
experts
factual
flames
foremost
goat
hallmark
heather
herzog
janet
liz
meandering
mediocrity
mormon
narrated
noticeable
notices
observation
parks
pathos
perception
poe
potter
published
python
rene
replacement
resembling
reviewing
rounds
selfindulgent
spine
spit
starters
submarine
trauma
tvs
underdog
unfamiliar
unsure
verbal
villainous
warns
##action
##don
##face
##filled
##gate
##ome
##pe
##uring
1955
1985
ads
aided
anton
benefits
bennett
boogie
borders
brat
cartoonish
composition
controls
cousins
crosses
depardieu
elliott
employee
excruciating
explodes
feeding
festivals
firstrate
foil
ghastly
gigantic
grisly
harbor
influential
injury
intact
jo
kay
kent
kurosawa
lansbury
lunatic
macabre
mama
marc
mirrors
monica
moviemaking
murky
mutual
networks
noteworthy
nutshell
obtain
pains
parallels
possess
pound
promptly
roller
rukh
sane
sf
shifts
shoe
smash
stations
stepmother
storys
swallow
tolerance
ustinov
val
vance
warden
youngsters
zane
##gle
##gy
##heads
##hed
##hs
##ied
##ings
##ium
##old
##q
1930
1957
agony
alleged
antagonist
antihero
asterix
atomic
audrey
belly
capacity
ceiling
cerebral
characteristic
classy
colleague
coma
confession
considers
dashing
denouement
diary
dismiss
drum
du
excess
excuses
feeble
finishing
flag
fright
fritz
geek
glaring
granger
hmmm
hysterically
joining
lighter
marx
miami
mobile
officials
otoole
pans
pbs
philadelphia
pokemon
policy
preaching
promoted
rambling
reluctantly
reserved
rodney
romances
sassy
scratching
scrooge
sensibility
servants
shocks
shuttle
sinks
slaves
sporting
statements
sweden
sweeping
upcoming
void
wheelchair
wherever
wright
##ened
##esquire
##for
##ura
20s
abound
adapt
attending
begs
bikini
casually
chat
clash
climb
cohen
comeback
contempt
counting
courtroom
daylight
deciding
deliciously
distract
drivers
dumber
dumbest
dunne
election
employees
encountered
forgets
furniture
gamera
georgia
hawks
horn
increase
ira
kahn
loy
lucio
malcolm
mandy
melancholy
momentum
mustve
obrien
optimistic
patty
porter
proceed
rear
recover
rivals
robbers
rounded
runaway
sensation
sgt
sources
stalingrad
subdued
sugar
summed
therapy
tormented
trivial
unconventional
whoopi
##ak
##fied
##making
##mann
##rick
##sa
##ved
1951
admired
aggressive
apt
atlantic
baddies
basinger
borrow
breathing
cape
controversy
cursed
dandy
debt
depictions
distinctive
distress
dj
dodgy
dynamics
egypt
er
excellently
exploit
fanatic
federal
feminine
flows
fruit
guinea
highschool
hinted
ignoring
imo
incestuous
invested
jacks
jan
knocks
landed
launch
lions
luis
lumet
lurking
manipulation
marines
needing
october
offense
ordeal
papers
paths
patriotic
penalty
phase
pointing
prostitution
ramones
readily
relevance
resolve
sabrina
sanity
schneider
scotts
sebastian
sensational
sheep
shepherd
sketches
skinny
skit
sour
staging
stoned
unconscious
unusually
updated
##era
##ette
##ire
##thriller
1920s
1934
28
achievements
ample
armageddon
arquette
blamed
bloom
borrows
bunuel
captivated
caroline
carson
cbs
chaotic
cmon
compensate
complained
cracks
cynicism
daffy
deadpan
deed
demonstrated
dictator
doyle
dukes
evan
fence
flood
graduation
hellraiser
hesitate
holland
increasing
insanely
inserted
irritated
juan
knights
languages
laying
lo
malkovich
merchant
moriarty
neglected
noah
offend
paula
pc
peggy
pickford
plate
populated
pose
psychologist
redundant
rehash
romanian
roses
rowlands
sentinel
shaped
slept
sophie
spade
stack
stake
stallone
streak
subgenre
taboo
thirst
tilly
tire
turmoil
vanity
wonderland
##ane
##cy
##just
##ku
##master
##ok
##over
1000
admits
allegedly
ambitions
article
august
bacall
bachelor
buildup
cal
cedric
celebrated
chapters
charlies
chill
chow
claus
conscious
coup
crossed
cunning
directtovideo
dominate
duel
elliot
enchanted
epics
fiennes
filmography
followers
forgetting
gathering
govinda
harriet
hawk
heath
hostile
illusion
impending
investigator
katherine
lifeforce
lorenzo
marilyn
masked
melissa
misunderstood
motions
mum
mystical
nina
overused
pa
participate
poet
progression
qualifies
rational
resulted
rio
rousing
scripting
sentences
shylock
smarter
substitute
swayze
timberlake
timon
transferred
uniforms
uptight
vera
warehouse
worldwide
##bi
##comedy
##inducing
##life
##ov
##res
##tv
abstract
allens
alter
anti
array
association
battling
begun
blackandwhite
bloodthirsty
boarding
bulk
buzz
camping
caper
charges
chef
chevy
customers
degrees
diamonds
diversity
drawings
drivein
eggs
estevez
evolved
faded
fades
fairness
fetched
flew
flip
forties
fundamental
gerald
grandma
grier
hi
horizon
hypnotic
inaccuracies
injustice
inmates
insomnia
instances
itd
jew
joint
knees
kubricks
leland
lens
lester
lightning
meredith
murderers
nest
newer
officially
phoenix
produces
programming
proportions
puppy
rant
relentlessly
remark
rider
shameful
shameless
shannon
shockingly
sigh
sleeper
socially
stab
stella
sustain
tightly
tones
tooth
uncanny
unclear
verhoeven
wholesome
witchcraft
##ces
##ery
##fer
##ho
##jo
010
18th
21
55
accidental
anticipated
auteur
bart
bearing
beforehand
bias
canyon
captive
charms
cheerful
cheers
click
cody
confined
consequence
criticized
cronenberg
daytime
deemed
derived
dodge
dragging
earliest
eater
engagement
esther
failures
fodder
frontal
gap
generate
graduate
hardened
hisher
hopeful
indicate
jacques
kristofferson
lambert
lang
lundgren
marketed
melody
messing
missile
observations
overweight
pairing
pocket
psychedelic
pub
rainbow
releasing
relying
renaissance
seduce
sensitivity
services
significantly
smiths
spice
spinal
spotted
sterling
substantial
sunset
superfluous
sweat
thunder
tolerate
update
verge
walters
wash
winners
worms
woven
zellweger
zombi
##ative
##ges
##ines
##play
##rk
##ud
##ute
##vy
1960
admirer
adrian
anxious
applause
artistry
awaiting
awfulness
benjamin
bleed
bodyguard
bombing
brazilian
brendan
brent
cancelled
carla
casablanca
celebrities
chamber
clad
coke
consist
counterparts
crooks
crushed
deanna
decency
deliverance
detroit
digging
elder
enchanting
enigmatic
ernie
excruciatingly
fragile
fuller
funky
heap
henchman
hepburn
hockey
hooper
imho
improvised
inadvertently
iq
jurassic
kinky
kinski
kurtz
liberty
lil
lords
lt
magically
micheal
monotonous
mortal
nanny
occupied
openly
ostensibly
palm
passenger
penelope
popped
principles
professionals
prop
psychiatric
recreate
retro
roughly
skating
slavery
sleeps
solved
steaming
strung
targeted
tax
tenant
theirs
tomb
uneasy
villagers
vividly
yells
##child
##ets
##hot
##how
##lock
##low
##ras
##ue
1941
250
85
abroad
assassins
bats
bearable
bless
bon
branch
bryan
burtons
butchered
cheering
chuckles
cloud
committing
conclusions
convict
coppola
corporation
costner
crosby
custody
denied
distinguished
downtown
dreamlike
electricity
elmer
enduring
executives
franklin
gloomy
hackman
headache
hmm
ignores
insert
interplay
jacob
kathryn
kidnaps
knightley
mae
maintains
moms
narrow
nearest
nuances
observe
outrageously
overacts
overtones
palma
participants
perverted
profile
raj
randall
reckless
recurring
republic
rouge
sales
sarcasm
sections
sickness
sins
smug
stewarts
stripped
sylvia
terrorism
tho
toxic
unappealing
understandably
vaughn
winchester
##bo
##cha
##che
##die
##em
##hy
##level
##lier
##list
##lla
##min
##point
##ric
##tal
##tle
##ven
##yn
1953
advances
allies
alvin
amir
auto
balloon
bash
blink
breast
bubble
bucket
buffy
buttons
carly
cheadle
chupacabra
coburn
colored
combining
continuous
counterpart
crooked
cummings
dangers
desk
distinction
distributed
dixon
dusty
eagerly
ebert
emphasize
endured
evelyn
exorcism
favourites
flamboyant
forgiveness
fort
framing
gallery
geoffrey
glossy
hannah
hans
hardest
hawke
hawn
herbert
honorable
howling
ideals
infinitely
intend
italians
jolie
kite
kristin
liu
lizard
lupino
lynchs
mclaglen
nigel
nightmarish
paycheck
perceived
perverse
pickup
pigs
pixar
platoon
polanski
pompous
preminger
priests
puzzled
quantum
quintessential
rapist
relating
relaxed
repeats
resistance
retrieve
robbed
rogue
scarred
schedule
sensual
seth
sheets
sorrow
spider
stable
stadium
suave
surf
talentless
tara
telly
thurman
transitions
transported
truths
vivian
weaver
weekly
werewolves
whimsical
ww2
##art
##back
##board
##nia
##ria
##rich
##uous
##ving
##zo
1944
abortion
abundance
apple
attic
backyard
banks
bashing
basil
believer
belle
blaxploitation
bombed
campfire
candle
charlton
civilians
clara
client
cohesive
coleman
commanding
contestants
crown
dedication
denis
dim
disregard
distorted
dive
dreaming
duncan
effortlessly
emmy
engineer
ensue
europeans
excels
expertly
fart
faye
flipping
gee
gina
goodman
grin
guardian
henson
honey
hunted
hurry
immigrants
invite
jared
joker
joking
kilmer
lambs
largest
lieutenant
liveaction
loretta
marcus
marvellous
melville
mindset
mishmash
mixes
muslims
nailed
nielsen
norton
novelist
obstacles
outset
periods
plagued
pleasures
prank
predecessors
progressed
rapid
realises
rebellion
redford
regime
reject
ruining
schemes
scheming
se
seriousness
sheila
shocker
skeptical
skipping
slumber
slut
snappy
spelling
spontaneous
stern
strain
strained
subtitled
sufficient
surrealism
swanson
taut
thirties
transparent
traps
treating
tuned
upstairs
vengeful
vigilante
waking
zoey
##cut
##ft
##ix
##maker
##ress
##they
##ula
##ular
1932
1967
accompanying
alot
amber
angelina
anonymous
antwone
ate
backed
bait
bastard
bend
biological
bitchy
bogus
boundaries
brett
brick
camilla
casper
celebrate
chaney
chips
clarity
creeps
curiously
demeanor
disappearance
dish
distinctly
drift
edges
elected
facility
faint
farewell
fleshed
fried
gadget
glen
goldblum
graces
harvest
hateful
hitlers
homicidal
hungarian
huppert
inconsistencies
influences
informs
insulted
ivan
juice
kisses
liberties
loan
lubitsch
manic
midget
nerds
oblivious
obscene
omen
operating
overnight
overshadowed
overwrought
parsons
patriot
photograph
portions
preacher
profit
rathbone
redgrave
reid
reminding
reported
retelling
rewrite
rips
sacrifices
seinfeld
sleepy
stalked
talkie
teddy
transforms
tricked
upbeat
vanilla
wiped
yell
yourselves
zany
##ass
##bed
##bert
##chi
##des
##driven
##ile
##kes
##lies
##worth
abandon
admirably
admitted
alexandra
antonioni
asset
astronauts
autobiography
avoids
awareness
bergmans
blazing
camps
carnage
chip
cocaine
comparable
consumed
contributes
coward
crashed
cutter
dern
developments
dexter
dudley
envy
explanations
exwife
fairbanks
flee
flowing
greta
haha
halfhour
happenings
hometown
hyped
idealistic
implies
incompetence
inform
interpretations
intruder
ironside
judgement
knocking
lange
lean
leno
lestat
listened
lists
lookalike
macdonald
madman
malone
marrying
mobsters
motel
ninjas
noting
obscurity
octopus
ongoing
parodies
patton
peers
penned
permanent
prologue
prostitutes
puns
ramsey
rapes
recalls
rice
ritchie
scriptwriter
sentenced
shady
shelter
shelves
sniper
spectrum
springs
stamp
symbols
testing
traditions
truman
vcr
virtue
warrant
yearning
##bing
##lon
##ou
007
aerial
applies
arise
avenge
backwoods
baron
beard
benny
beth
bimbo
boxoffice
braveheart
catwoman
caution
circa
clarence
classified
cliffhanger
climbing
collaboration
combs
controlling
courageous
crook
dangerously
disappearing
district
domain
dwarf
echoes
economy
electronic
establishment
evoke
examine
famed
floyd
genetic
glenda
grease
gundam
hugo
imitate
judd
jules
kindly
lengths
loony
mack
marathon
marvin
mice
mitch
mobster
nuance
pals
phones
pin
playwright
precise
quarters
raiders
ravishing
reasoning
request
resurrection
retrospect
revolt
robotic
saloon
scarface
scorpion
seattle
senator
shotgun
sincerity
smoothly
sought
stating
straighttovideo
stretches
stripper
sucking
suicidal
surgeon
swamp
sweetheart
sylvester
systems
talky
tended
tennis
thug
tierney
tourists
transform
underused
unfinished
unfolding
unwilling
vibe
violently
watcher
wee
zhang
##bound
##ched
##haired
##liness
##mic
##ol
##oriented
##part
##rie
##tein
##ups
##wing
73
anita
arranged
assistance
astronaut
bandit
bartender
bert
bloodshed
boards
bosses
bothers
cavalry
censorship
childlike
competing
condemned
confirmed
confronts
corbett
coworkers
creations
daisy
deborah
demille
deservedly
drain
drowning
duh
eleanor
elusive
exploitative
expresses
fairytale
fido
freely
fulfill
gein
gillian
gosh
graffiti
greene
hostel
imprisoned
inch
incidental
inhabit
interspersed
iran
jefferson
jolly
keeper
kerr
laser
lawyers
lays
lightly
locke
lopez
miraculously
morse
motivated
neighbours
ninety
occult
oddball
outdoor
outlaw
percent
peril
playful
pursuing
radiation
rays
razor
reese
rendering
representative
revelations
ripley
roads
robertson
rookie
rudy
ruled
salvation
satanic
scattered
searched
serials
shaggy
sharks
shemp
shout
sirk
slaughtered
slot
staple
stoic
switching
theft
til
uma
unnerving
unstable
vega
veronica
vincenzo
vulnerability
walmart
wang
wherein
whove
worrying
##ain
##ara
##are
##cast
##ching
##cs
##een
##els
##hour
##iate
##ional
##ius
##quality
##sen
##ses
##ulation
##war
1942
1966
1992
accompany
achieving
annoyance
anthology
atrocity
baddie
baffled
bites
blames
bleeding
blessed
blockbusters
boost
borderline
bursts
butterfly
cheat
chewing
collapse
concorde
conroy
conveying
dafoe
dash
december
delve
desolate
destructive
detached
devotion
dirk
displaying
dopey
dreamy
encouraged
epitome
espionage
farmers
fiery
foreboding
fugitive
gardner
gig
greats
griffin
handy
hop
hosts
impressions
irresponsible
jessie
kathleen
laboratory
layer
ledger
liam
mabel
manipulated
meanings
merry
monumental
olsen
operate
othello
overacted
perspectives
pistol
pivotal
posse
predictability
prices
promotion
railroad
ram
reeve
retirement
robbing
roosevelt
scarier
shawn
sheba
shepard
shred
shrink
sights
similarity
squeeze
starship
steele
stefan
sunrise
tagline
temper
traumatic
trusted
unravel
varying
vaudeville
vinnie
wrongly
##box
##gers
##ians
##ify
##ik
##mouth
##po
##power
##rock
##ron
##tly
##ul
##zer
absorbed
advised
ally
amateurs
amid
archive
automatic
barn
beau
berkeley
bondage
boxes
brunette
bs
byrne
cannibals
capsule
cecil
charley
chew
closure
cocky
commendable
concentration
coolest
criticisms
customs
dario
debra
dien
din
directorwriter
drugged
earns
elementary
encourages
extraordinarily
eyed
fascist
fiend
firsttime
fixed
fraud
gathered
gooding
governments
gravity
hallucinations
hating
hilary
houston
hunky
inject
instructor
instruments
interiors
jagger
keanu
lesbians
lightweight
locale
lorre
magician
midway
mines
mister
mol
monologues
mythical
natasha
naval
oriented
orphan
policemen
polly
pornographic
posey
praying
prospect
raid
reunited
saddest
sammy
screened
searches
selleck
seuss
sexist
shearer
sho
sidewalk
sites
slips
snap
soprano
soylent
spectacularly
spoiling
standpoint
stereotyped
surrender
surround
swords
tedium
thelma
theodore
throne
trainspotting
transport
uncompromising
visconti
weary
webb
wires
##ator
##burg
##hes
##hl
##nn
##ola
##ops
##ration
##related
##tar
##there
##vi
1931
1958
1965
400
adventurous
agreement
allstar
amoral
attendant
awarded
badness
bags
bakshi
bald
billie
bloke
braindead
burke
burnt
butch
cap
capt
carnosaur
ceremony
charity
cheesiness
chemical
chops
clients
cobra
collecting
conflicted
constraints
correctness
darkly
defending
deneuve
duckling
earthquake
edith
enormously
enthralling
everybodys
expressing
fighters
firth
flashing
functions
gaming
gesture
grandparents
groove
guinness
herman
hines
hiphop
holden
hooks
identified
imitating
impeccable
implications
imply
instincts
intellect
irons
judith
kindness
lindsay
mac
martians
maurice
mcdowell
misplaced
miyazakis
mustache
napoleon
noel
noticing
occupation
opponents
optimism
outcast
outlandish
output
padded
padding
paired
pepper
plotline
plug
portuguese
positions
pranks
precode
predicament
preferably
presidential
presume
protecting
punished
puzzling
ranging
register
restraint
richly
rickman
roach
romania
scandal
sciencefiction
secure
selfcentered
semi
serum
shakes
shattered
skillfully
solving
sosuke
stirring
superstar
supports
toby
torment
toss
tragically
uncertain
unforgivable
unremarkable
vertigo
viva
volumes
voting
waits
welcomed
www
zealand
##aries
##ction
##ered
##gan
##kers
##lands
##oon
##pm
##ram
##sm
##uff
##vin
48
98
adequately
agatha
alexandre
ambiance
anchor
antiwar
appalled
approval
arizona
atrocities
barbra
bloodbath
boyfriends
brass
breathe
brooke
budding
cathy
chloe
chocolate
circumstance
coen
collector
complexities
concentrated
connie
cortez
costuming
cowboys
crowded
crypt
darling
decay
deck
denver
determine
dietrich
disconnected
dogma
dressler
eg
elijah
emotionless
episodic
europa
evocative
fetish
fiasco
finishes
freeze
gasp
grandeur
griffiths
grounded
gruff
harmony
heroines
holm
impersonation
irwin
islands
jerks
jodie
joyce
katie
klaus
krueger
labeled
laden
lifelong
limp
lurid
marriages
menu
miners
missions
mocking
modernday
moores
nauseating
needlessly
norwegian
offerings
parrot
patch
perkins
pianist
plotted
poitier
predicted
prone
psychologically
puke
pulse
raoul
raptor
ratio
raunchy
rejection
remainder
responds
reunite
revisit
revival
rosemarys
scarlet
seagals
semblance
shah
shamelessly
shifting
shrill
slower
slows
sober
spawned
spears
spinning
spoofs
spotlight
stabbing
stalker
stance
steamy
stupidest
suggestive
switzerland
sync
tech
thatll
thumb
tits
tonys
trait
uncredited
unsuccessful
vapid
warners
willard
worship
wrestler
zizek
##budget
##grade
##nick
##od
##piece
##row
##though
##ulating
##uting
##what
##wick
1938
1948
1962
2009
64
actorsactresses
ada
adored
alluring
amok
apologize
arrogance
atwill
aunts
bathtub
battlefield
battlestar
bc
behaves
bergen
billion
brigitte
bye
cages
campers
carpet
chavez
cher
chiller
chore
climate
clinic
coaster
coincidences
compassionate
converted
copying
cos
crowds
curtain
deception
depend
discount
eisenstein
expressive
fashions
feisty
fleet
forrest
frenzy
fulllength
gena
gently
gifts
gossip
greece
gwyneth
hail
hairy
hannibal
hustler
hypocrisy
inducing
integral
jerky
jock
kaufman
killjoy
landmark
lex
lingering
lon
loner
loop
lovingly
manga
marlow
masterson
maturity
maze
melvyn
memento
michel
minnelli
minnie
mold
myrna
naschy
nathaniel
necessity
notre
observed
pauline
penis
polar
polite
ponder
prejudices
prevalent
quigley
rampant
recipe
recreation
recruit
reflecting
rehearsal
remorse
ridden
rightfully
risks
rollercoaster
sample
satellite
schwarzenegger
screenplays
seal
sen
slang
snatch
somber
sore
spielbergs
spitting
stature
stepping
stink
structured
succession
swiss
tables
thankful
torturing
trigger
uncover
unleashed
unnecessarily
usage
venus
versa
videotape
visitor
voiceovers
warfare
watchers
weirdness
wills
woefully
wolves
yokai
##ac
##actor
##aged
##ards
##century
##director
##ek
##fall
##gi
##lers
##lt
##pa
##pers
##tz
##zi
1947
academic
adultery
alliance
anguish
animators
antisemitism
approximately
architecture
armor
artistically
assumption
astonishingly
beethoven
bicycle
blending
boats
boyer
brit
bsg
bum
carefree
cassie
cheats
chopper
communism
companions
complains
compromise
conductor
confines
consistency
counted
cunningham
dam
davids
deeds
delirious
distinguish
documents
downbeat
dreadfully
dripping
dungeon
edits
exgirlfriend
existential
expanded
fanny
file
finney
footsteps
fulfilled
fulfilling
funds
galactica
ghostly
grossly
han
handicapped
happier
hartleys
heartily
humiliation
icons
innuendo
insignificant
intelligently
invincible
jar
keatons
knack
lad
lara
launched
lecture
limbs
links
lyrical
manipulate
melanie
monstrosity
muted
nerdy
nickelodeon
oblivion
omar
operas
overwhelmed
paragraph
partial
placing
poirot
potent
powerfully
projection
rae
ranting
renowned
revolve
riff
rko
rugged
russ
sailors
scoop
shakespearean
showcases
silverman
slam
sonja
stabs
stir
stylistic
supportive
symphony
tempest
temporarily
tensions
tested
throats
tina
torch
tucker
unlucky
unnoticed
vet
vic
villa
visceral
worries
yadda
yup
zoom
##10
##bag
##city
##dies
##eau
##free
##handed
##his
##hole
##ika
##las
##movies
##nie
##only
##ugh
##use
##white
##worthy
1928
1949
1963
39
adapting
adopt
allan
anatomy
andersons
anniversary
announced
annoy
anxiety
arkin
articulate
bachchan
backing
barton
blurred
branaghs
brides
caron
carriage
categories
chamberlain
cheaper
christy
cindy
clayton
coincidentally
condescending
confronting
consisted
continent
cringing
csi
darwin
declared
deepest
demographic
devious
differ
dimwitted
drowned
dunno
eliminate
enforcement
exaggeration
existent
fellini
flame
freed
gaping
giggle
goodnight
grandson
gym
haggard
helmet
hicks
hiring
hitchhiker
honeymoon
hug
hunk
illustrate
infant
investment
irving
jam
keira
leary
log
lure
madly
managing
mentor
mercifully
mills
monks
moran
motif
mutants
myths
notions
november
nutty
orchestral
outsiders
patterns
pinhead
pioneer
poke
postmodern
prolific
punks
quaint
questioned
recognise
reeks
refusing
reno
reporters
representing
requisite
rockne
seas
secluded
sensibilities
shouts
shoved
singin
snippets
socks
somethings
sophomoric
sox
steamboat
strangest
subconscious
surrounds
susie
suspicions
sweeney
tackle
tanks
tease
tenacious
thereafter
trips
troupe
unhinged
untalented
voyager
warped
whip
winston
wipe
wits
woeful
wrath
wrenching
yarn
##aging
##book
##dance
##ees
##formed
##funny
##long
##love
##sive
##tions
##tone
##ub
##ures
1946
27
abbey
adversity
airing
altmans
amiable
annoyingly
apocalyptic
argentos
ariel
assist
assorted
assortment
athletic
aura
avenue
awry
baxter
benoit
bonding
botched
browns
bynes
caddyshack
caretaker
cigarettes
compositions
concentrates
connor
continuously
cotton
coworker
cram
crawling
crossfire
cues
dale
damsel
debacle
defining
demonstration
dependent
diego
disdain
distasteful
dreamed
dross
duchovny
earths
enhances
entertains
enthusiasts
exhausted
external
eyebrows
fable
fastforward
feared
fictitious
files
foggy
fuss
geniuses
gershwin
gielgud
goddess
governor
granny
haired
hawaii
heartless
helsing
incomplete
inexperienced
interpret
interrogation
irresistible
jewelry
kingsley
linear
lowbrow
luxury
magazines
maintaining
mandatory
marijuana
mcqueen
melt
mermaid
mia
millennium
moderately
monday
mormons
muscle
paresh
patterson
paz
peasant
pegg
pen
penchant
pervert
peterson
plods
poking
prefers
presidents
prevents
prophecy
proposes
refuge
relates
relied
revolver
ripoffs
rosario
rotting
saints
satisfactory
seduced
select
shootouts
shrek
siege
simpler
skateboarding
smack
smallest
smitten
sorority
sprinkled
staggering
stereo
stunk
suspended
temporary
thereof
threats
thunderbirds
tide
timed
tobe
transplant
trendy
vader
valerie
vault
versatile
watered
wendigo
wheels
whod
widowed
wiser
zach
##ats
##ax
##born
##clad
##directed
##fs
##gun
##lit
##ology
##si
##tan
##tism
##ude
##wa
##zed
1956
5th
accomplishment
adele
angie
attributed
badass
barbarian
bathing
bava
beans
beers
behalf
biko
blends
blessing
booze
bout
brandon
bullies
caligula
cheerleader
chimney
claw
cleopatra
closes
collar
colony
colourful
comet
compares
compound
conception
concludes
concrete
confederate
connecticut
conniving
consisting
corners
cowritten
cowrote
cracked
culminating
cypher
data
denying
descends
dismissed
diving
dolemite
doses
drifter
dudes
duties
eighteen
eli
emergency
emerging
enthralled
falcon
fitzgerald
flock
forgiving
formidable
generals
geraldine
gimmicks
heritage
historians
howards
hum
icet
identities
idiocy
il
ilk
illustrates
indicates
interpreted
jenna
justification
kenny
kpax
lap
laurie
leonardo
lili
locales
loudly
madeleine
magnificently
martian
mastermind
melbourne
miniature
mockery
mole
monstrous
nana
narcissistic
neutral
oceans
ounce
outbreak
outlook
outs
overseas
overt
overtly
pakistan
palpable
parisian
pathetically
postman
prayer
pressed
problematic
projected
pronounced
puerto
rabbits
rack
radioactive
refugee
relieved
replacing
reply
rests
revived
revolting
revolving
rhyme
roland
rumors
sacrificed
schizophrenic
screamed
seduction
seventh
shadowy
shapes
shaun
shenanigans
shoestring
slob
snowy
soderbergh
sophistication
sparkling
spouses
ss
stimulating
sting
stitches
straw
sunk
sydow
tasty
tests
theresa
truthful
virtues
warhols
wildlife
willy
##ang
##cks
##dale
##dling
##ere
##etic
##fully
##gent
##has
##iers
##logical
##stic
##ward
##water
##ws
acclaim
addresses
administration
alain
alba
albums
allegory
annual
arbitrary
awakening
awkwardly
barber
bickering
bothering
breakthrough
breathless
brits
bury
capshaw
caribbean
celebrating
chans
cherry
chopping
climatic
commando
continuation
crass
crow
dares
defy
delusional
devastated
digress
discussions
distributors
edmund
eliminated
ellis
essay
examined
exceedingly
exposes
extremes
fantastically
fewer
fleeing
fleeting
folklore
foreigners
formerly
francois
frat
freddie
gen
goers
goofs
gotham
grabbing
grating
grossout
gypo
habits
harlan
hatch
healing
herrings
hobgoblins
holidays
inhabited
intends
janes
junkie
kells
kissed
lamas
leaps
lear
lindy
listing
maintained
marvelously
materials
mathieu
meek
middleclass
misfits
needle
partying
passive
perversion
picnic
pioneers
plausibility
predators
premiered
priscilla
promoting
promotional
punchline
purposely
rachael
railway
rains
raping
reels
refreshingly
relaxing
render
restless
rocked
rushes
sammo
scum
sessions
slipped
slowmotion
spelled
stakes
stereotyping
stray
subtleties
supremely
swift
tacked
talbot
tearjerker
temptation
terminal
thursday
transcends
turgid
uninspiring
wahlberg
warnings
wielding
willingly
woke
##als
##atory
##bird
##boat
##cal
##cher
##class
##ern
##ett
##ica
##ifying
##mes
##ously
##pping
##tti
##used
##vis
##ways
##writer
##ying
26
alarm
alienation
battleship
beginnings
bgrade
bravery
burden
cain
carroll
cassel
cena
censors
cheung
circuit
classmates
colbert
commentators
conduct
convicts
cord
cosmic
crispin
cynthia
darcy
das
deformed
delon
democracy
denial
denise
diabolical
disasters
drastically
dreyfuss
durbin
dwight
effortless
employer
expand
familiarity
featurelength
finance
fishburne
flirting
freaked
freshman
futile
gadgets
garnered
geeky
giggles
glee
godard
grandpa
graphically
gremlins
guidance
guided
hacks
hardships
hasselhoff
heiress
hispanic
httpwww
ida
idle
illustrated
impressively
ingenuity
inherited
insecure
invest
jacqueline
joanne
joshua
kiefer
knives
lawn
linnea
mannered
massey
matching
matinee
megan
mendes
milland
milos
minimalist
montages
moods
morton
moscow
muscular
nevsky
newspapers
nineties
oldboy
outsider
pardon
passions
pauls
perlman
pistols
plantation
positives
prints
prolonged
proverbial
publisher
quirks
rabid
raft
ransom
raving
recite
reiser
relive
renoir
rescues
ripe
rivalry
rudd
saboteur
satans
separation
sfx
skipped
slayer
soulless
spaces
spades
stares
stooge
supermarket
supplies
surpasses
tackles
tarantinos
tearing
tenderness
themed
throwaway
timeline
toned
tools
traveled
trex
tribes
turtle
twentieth
undeveloped
uniquely
unnamed
unrated
ve
williamson
wry
wwi
yards
yea
##air
##ano
##away
##bit
##ean
##ely
##fy
##fying
##ically
##iling
##lam
##lia
##lie
##logy
##loving
##nell
##oy
##pace
##ree
##rn
##tie
##vert
1964
ably
advertisement
animations
antoine
aptly
ash
associates
atlanta
barbie
berry
bigfoot
bloated
briggs
britney
callahan
cannibalism
cargo
carole
chandler
ches
choir
choke
cinematographic
civilian
cleverness
cockney
component
contestant
cough
crews
cringeworthy
daft
damato
dared
darkest
darth
dassin
defines
departments
di
diesel
discipline
docudrama
documented
downside
downward
drained
efficient
eighth
elevate
embark
emilio
employ
employs
engrossed
environmental
escapism
excrement
farcical
fassbinder
finely
friendships
fund
geared
getaway
grammar
grocery
guise
hale
heal
herd
historian
hoods
humane
hunger
hysteria
ideology
infectious
inferno
infidelity
invaders
january
jigsaw
kazan
kiddies
knoxville
levy
lineup
manos
marginally
maureen
mechanic
midler
myrtle
neglect
northwest
notwithstanding
nuns
occurring
owe
palette
patsy
pauly
permanently
philippe
phrases
pipe
pitched
planted
platform
prehistoric
privilege
progressive
protest
prototype
pryor
purchasing
que
ratso
reception
regulars
robber
rockets
rrated
sack
sacred
sant
sap
savalas
scam
scantily
sensuality
sesame
shirts
shtick
slowmoving
smarmy
smashed
smashing
soda
sonny
sordid
spreading
stagecoach
stretching
stubborn
successes
sufficiently
taylors
tepid
timely
tin
toll
tricky
trunk
undeniable
urgency
vanishes
variations
vienna
vijay
waist
weaves
welch
whereabouts
wilde
zucco
##60s
##after
##bble
##dor
##end
##ew
##ez
##lane
##nis
##nk
##ren
##table
##tch
##tta
##ux
##wife
##yer
150
1952
abominable
accustomed
adulthood
affections
agreeing
aimless
aims
amos
amuse
anchors
anil
announces
arabia
arena
aristocrat
artemisia
articles
attenborough
attracts
backdrops
betrays
bing
bliss
byron
cad
canvas
carlyle
cavemen
chairs
channing
chock
clyde
cocktail
coin
commands
comprised
confirm
conflicting
connects
construct
contemplate
convent
coop
countrys
cowardly
coyote
cured
deathtrap
delta
detracts
dialect
discernible
dung
echo
eden
empathize
equals
esp
exceeded
exchanges
exhibits
exudes
farscape
fathom
financially
franz
fry
galore
gamers
geisha
gripe
halfbaked
harp
heavenly
homeland
humiliating
icy
illuminated
indulgent
ineffective
ineptitude
insufferable
intimacy
iturbi
jackal
joyous
joys
julianne
kiddie
lampoon
lassie
lennon
lest
lifts
locker
locks
longoria
loren
luther
marcel
marital
marlene
metropolis
mischievous
misty
mugging
mulder
nightbreed
nora
offspring
opponent
opposition
options
opus
orphanage
ours
permission
perpetually
picturesque
placement
poignancy
pollack
poppins
posh
practices
professionally
punching
purse
quoting
raimi
razzie
recreated
reportedly
reprise
resorting
reverend
revive
riddled
rosie
scoobydoo
sealed
seducing
sentiments
sheet
shiny
sibling
skater
slash
slew
sparse
speeding
sr
stoner
strikingly
struggled
summarize
superiors
suzanne
sweep
taker
teamed
thornton
timmy
tiring
tow
twenties
twodimensional
tying
unexciting
unfaithful
unimpressive
universally
unresolved
vanishing
veronika
visitors
welldeveloped
widower
willingness
witless
##00
##ani
##con
##cus
##dom
##eer
##fighting
##gh
##john
##keeper
##mal
##mate
##matic
##mel
##mps
##rade
##ridden
##tobe
##van
##wn
##yo
610
accompanies
acknowledged
actively
adviser
afterthought
aimlessly
allison
arnie
aspirations
astonished
ballroom
barnes
barrier
bauer
beckinsale
bigbudget
bigotry
bikers
binoche
bradley
brawl
brotherhood
burgess
busby
buscemi
butchers
cent
cesar
chained
chen
citys
cohorts
competently
connecting
corridors
crane
crowe
cuban
cursing
dangelo
dense
depraved
distraught
dominic
dorm
drummer
dug
einstein
elton
ensuing
entertainer
enticing
ethical
euro
fallon
fateful
fernando
filmic
filmnoir
frederick
gains
geeks
gerry
gilmore
giovanni
gladly
glorified
goons
goth
grady
grain
grieving
grumpy
gulliver
gunga
gusto
highlighted
hobby
imdbs
inc
increased
indifference
inspires
intellectually
intellectuals
joes
junkies
keyboard
knockoff
ladys
latenight
lau
layered
legally
lied
lin
liotta
lombard
magnolia
manufactured
marisa
marred
maverick
meanders
meyer
moan
mockumentary
momma
monotone
moss
mount
mulholland
nameless
nash
necks
negatives
nell
niche
northam
observing
operatic
oppressive
organ
oscarwinning
palmas
peaks
pond
postapocalyptic
praising
prem
premier
preteen
proposal
protective
reacts
recap
reflections
registered
remaking
renegade
repair
restoration
retains
riddle
ringing
ripper
rodriguez
rumble
runtime
sams
sans
scheider
schtick
scoring
selfabsorbed
setups
shootings
sketchy
slack
sleeve
slugs
soooo
spawn
specialist
spectator
speechless
spinoff
spliced
squirm
stacy
starving
stumbling
subversive
surpassed
surveillance
suzy
swank
tart
techno
tendencies
therein
traces
transvestite
upsetting
vessel
vulgarity
washing
wb
weed
whine
wideeyed
wynorski
##ach
##ack
##acting
##arian
##bbing
##coat
##com
##drama
##gg
##hing
##ifies
##ig
##kov
##law
##lyn
##mon
##ncy
##ora
##produced
##star
##sy
##tage
##ther
##top
##ua
##word
addicts
advent
ajay
ang
annoys
aplomb
arch
artful
ava
backup
baffling
banana
behaved
boils
brush
bullying
bumps
burial
caan
calvin
candice
cardinal
casted
castro
chronological
cleaner
cloak
clumsily
coal
collette
contemplating
cracker
craze
craziness
creepiness
criminally
cringed
cruz
culprit
daphne
dastardly
dc
defence
della
demanded
demi
descriptions
diet
digest
disfigured
disgruntled
distributor
diversion
division
dock
dominates
download
draft
drown
enthusiast
epilogue
erratic
escapist
evolve
evolves
exhilarating
fabric
fanatics
fatally
flees
fleischer
foreshadowing
fourteen
giggling
gwtw
hairdo
hamming
hardboiled
hare
helena
henderson
herein
hesitation
heyday
hightech
homophobic
hound
imagines
immersed
inconsequential
indepth
instrument
intertwined
intervention
intimidating
jed
jedi
kersey
keystone
knee
lampoons
lick
lingers
liquid
logo
losses
lukas
majestic
manson
marjorie
martino
mcdermott
measures
mencia
miner
miriam
misfire
monastery
morocco
motor
mutilated
myra
myriad
noon
novella
nurses
oneill
oops
orbit
outta
owning
panned
payne
perfected
persuade
phoebe
piercing
poland
pope
preceded
preparation
prestigious
presumed
printed
profits
progressively
radar
reconciliation
recovered
redeemed
regrets
repertoire
reservations
resurrect
retain
reversed
riders
rooted
rowan
sabotage
scout
screws
smalltown
sneaks
sophia
sorta
soundtracks
spoilt
spoon
spoton
spouting
stalin
stupidly
submit
substandard
sunlight
surfer
texture
thankless
theron
thirteen
throwback
topped
tragedies
tribulations
tropical
turbulent
ultimatum
unbearably
unwittingly
upbringing
vanished
ventura
wallet
waterfront
weirdo
wilsons
witherspoon
worm
##aki
##ase
##ast
##bar
##ever
##game
##gging
##gore
##hand
##ics
##inate
##ira
##ited
##itz
##kins
##mith
##oid
##our
##rier
##right
##tty
##ult
##urs
##win
##ye
##zen
##zy
65
7th
97
abducted
actionpacked
actuality
addressing
agonizing
alejandro
allusions
amazes
analyze
andrea
applauded
assisted
atop
ator
attachment
bandits
basics
beaches
beowulf
bernie
blocks
blondell
bores
brainwashed
brink
busted
candidates
canned
canon
capabilities
capote
caprica
carrot
cellar
censored
chains
checks
cigar
classroom
climbs
cloth
comically
commentaries
commonly
compilation
confesses
connors
cooler
countess
coverage
crop
crummy
decoration
degrading
delusions
delves
demme
departed
deserts
desi
dickinson
disconcerting
disguises
disservice
ditto
dope
drums
dumps
eddy
engages
environments
ewoks
excessively
excon
execs
fashionable
featurette
finn
flynns
fondly
funded
fur
garcia
gays
gaze
gilliam
gladiator
goldfish
goodfellas
grit
halt
harper
heightened
helicopters
henriksen
heroism
heterosexual
hindsight
holt
illusions
impersonating
inherently
insisted
integrated
interacting
intrusive
invent
inventor
jackman
je
katharine
kentucky
kolchak
kristen
laced
lipstick
liquor
lori
lowrent
maguire
management
mausoleum
mcgavin
mckenna
meadows
meanspirited
meditation
microphone
miikes
mindblowing
miraculous
misogynistic
missiles
mississippi
modeling
mona
murphys
mutated
mystic
nan
narrates
nero
neverending
nichols
nods
numb
nursing
opted
organic
organs
oriental
outrage
outtakes
panties
participating
participation
partnership
patriotism
peek
perez
perky
pillow
pm
pokes
posed
potato
procedure
proceeded
professionalism
proudly
puerile
pumbaa
rea
reanimator
reckon
reduce
repetition
replay
restore
rewatch
rewind
ricardo
ridicule
rifles
rigid
risky
romeros
runofthemill
savvy
scarcely
seaside
senile
serviceable
shield
signature
sinatras
smuggling
snails
sneaking
sociopath
solomon
spared
speaker
spoofing
starlet
sterile
storyteller
strokes
subjective
submission
succeeding
tasks
tenants
tess
textbook
thailand
tips
tortures
travelling
tribal
troll
troop
trucks
truffaut
undertaker
unfairly
villages
virginity
voters
waltz
wellcrafted
whodunit
willem
wisecracking
yacht
##70s
##actors
##ada
##ants
##can
##car
##creen
##dle
##foot
##gin
##iated
##ich
##ico
##iel
##ington
##killer
##load
##lu
##ners
##ova
##ox
##posed
##rian
##rman
##thing
##une
##wed
##zar
1943
8mm
abyss
accomplice
adept
afterlife
alcoholism
anders
android
aniston
antidote
apartments
arabic
arden
arises
aristocratic
avail
babs
bisexual
bomber
bowling
brock
bump
capitalize
cartman
chong
churchill
cleaned
clowns
commentator
comrades
conceit
contrasting
convert
courtney
cowriter
cows
cradle
cravens
croc
danced
dante
decapitated
democratic
denmark
dictionary
dime
dna
dom
donovan
dreaded
dual
dumbed
earning
ecstasy
elisha
englund
enlightened
evenings
evoked
excesses
exposing
eyeballs
facade
failings
faked
fee
financed
finnish
flux
foe
forehead
formal
glamour
goings
goldeneye
grint
haircut
hardware
hazzard
homework
hookers
horrorthriller
hurting
hutton
icarly
illiterate
imperial
incorporated
indulge
injuries
intestines
invariably
iranian
izzard
jeans
jeep
klein
kutcher
lam
laughoutloud
lds
leila
letterman
leung
listens
lump
machinations
magnitude
mannequins
manuscript
memorably
midlife
milieu
misfit
mishima
nasa
observer
oddity
olympic
om
oneself
oppression
orgy
outings
overact
overcoming
overuse
pastiche
pauses
pecker
perceive
personnel
plainly
plea
plucky
popeye
pouring
preceding
premises
prevented
primal
professors
prowess
ranges
rarity
recovering
rednecks
regain
removing
researched
richer
riddick
ridley
sandwich
saudi
scenic
scriptwriters
seamlessly
setpieces
settles
shack
shaft
shortlived
showcased
signing
singular
sixteen
skies
sondra
sparkle
specials
spins
staircase
stalks
stills
sumptuous
surrealistic
sweetness
tent
testimony
thanksgiving
thematic
toes
topical
towering
townspeople
transformers
triumphs
typecast
typing
tyrone
utah
utmost
vets
vh1
vocabulary
watts
wink
wrestlemania
youngs
youngster
zooms
##ars
##ban
##bility
##cent
##gal
##gue
##ination
##ises
##iting
##kis
##llo
##mation
##mont
##nder
##uit
##vation
##writing
1954
747
aeon
agnes
alaska
aloof
alpha
ancestors
answering
appetite
argued
ashes
assumptions
attributes
babette
backward
bailey
balcony
behaving
bernsen
bizarrely
bouncing
britains
caves
changi
characterdriven
charmed
cheech
cherish
chord
chunk
claudia
claudius
clockwork
collage
collected
compromised
condemn
conference
congo
congratulations
conquest
consummate
contacts
contrasts
corbin
craving
cristina
criterion
critically
criticizing
deadon
deceptive
den
dental
disability
diva
dresser
dudikoff
eclipse
elegance
ella
emptiness
exclusive
expertise
fading
farther
farting
figuring
finer
fitted
float
floors
fondness
forsythe
frederic
freshness
fronts
gangsta
garbos
genetically
giovanna
glimmer
glue
goodnatured
graceful
granddaughter
gretchen
grips
groan
gutter
hailed
halls
haunts
heel
heir
hells
honour
housewives
hubby
igor
impresses
indy
inflicted
informer
insects
investigates
irrational
itv
ivory
judas
lars
loaf
logically
looses
louisiana
lunacy
maltin
mansfield
masquerading
masturbation
measured
memoirs
muster
mystique
neeson
newest
newfound
nuke
omg
ott
packaging
palmer
patrol
pee
perverts
pesci
pets
phantasm
physician
plotwise
pondering
ponderous
populace
pour
preach
precursor
preserve
princes
quibble
rapists
rapture
recreating
reform
reversal
rundown
salvage
scarecrows
scaring
schrader
schumacher
screwing
selfconscious
sheridan
shorty
silk
sixty
skips
slapping
slater
sm
solar
spiders
stalwart
stepfather
stepped
stiles
stockwell
superlative
supporters
takashi
talkies
tenuous
thespian
threaten
tiffany
tipping
towel
tracked
trading
traditionally
traitor
traumatized
trent
trinity
tshirt
tub
turturro
tweety
unborn
underwritten
unfocused
valentines
verhoevens
vito
vocals
wandered
werner
whales
wolfman
wondrous
writings
zetajones
##aker
##anne
##ches
##ci
##dge
##ella
##fication
##gen
##hearted
##ined
##ison
##jin
##lis
##lls
##mar
##ois
##ologist
##pin
##ral
##tons
##vision
11th
1800s
1927
6th
accordingly
airline
alarming
alienated
amadeus
amusingly
antichrist
ashton
astin
austrian
avery
babysitter
basket
beef
behaviors
belgium
belonging
benson
betray
bettys
blackmail
blended
bonham
brash
brennan
brute
butts
calibre
candles
cans
capitalism
captains
centres
chic
clearer
clones
coins
colman
comicbook
composers
conquer
cooks
creatively
credentials
daisies
deftly
deluise
deol
digs
dimensions
discarded
disclaimer
disillusioned
disturb
donnie
doubtful
dublin
duff
duped
eileen
elicit
elisabeth
elsa
emmanuelle
encouraging
epps
ernst
establishes
ethel
evie
exhausting
extension
facets
faux
fencing
fenton
fk
flamingos
flavia
flesheating
fling
floats
florence
forum
frail
gage
gaining
gale
gamut
genie
goo
goof
gown
grail
grind
grinning
grownup
gustav
gyllenhaal
hadley
hamill
hardship
hardworking
harron
hassan
heartwrenching
hermann
heshe
hideously
hillbilly
hilt
hohum
housekeeper
immoral
immortality
improv
incorporate
infuriating
innovation
insensitive
interlude
interminable
interviewing
intolerance
jacobi
janitor
jeopardy
jonny
keitel
lana
lapses
lecherous
lowered
luminous
luscious
maclean
maiden
malevolent
mame
mani
marshal
martins
masculine
mash
mastery
math
mechanics
metaphors
minghella
mining
minions
mistakenly
mores
morgana
muscles
neill
nintendo
noisy
ogre
onesided
orlando
overwhelmingly
pairs
paperthin
paraphrase
picky
ploy
pola
poltergeist
poorest
posts
potemkin
pre
precision
preserved
prominently
prophetic
pursues
qualified
radha
ranking
rawal
recruited
relish
repugnant
rerun
resembled
residence
reworking
ringwald
ruler
sardonic
seminal
shane
sherman
siegel
signal
singlehandedly
skulls
socialist
societies
societys
sooo
spouse
strategy
stride
suburbs
successor
swallowed
swings
tasteful
tennessee
therapist
thirdly
thou
toe
undertones
uneventful
unstoppable
untrue
vacuous
vernon
vietnamese
volcano
weirdest
whacked
wickedly
yeti
zelah
##ari
##aw
##bal
##bers
##bling
##bury
##cam
##cies
##cock
##dog
##eds
##eth
##eys
##fi
##fight
##fly
##gger
##gles
##ils
##lar
##lee
##lining
##lle
##los
##michael
##mie
##ort
##pie
##played
##playing
##plot
##pped
##rator
##rent
##ru
##sis
##tin
##tra
##track
##vers
##watch
##zel
86
88
abu
acquaintance
acquaintances
acquire
adjust
allamerican
alternately
amaze
amityville
ammunition
anticlimactic
apollo
apologies
apprentice
arcs
arrangement
atkinson
atypical
australians
autobiographical
autopsy
ax
azaria
babysitting
barrels
barren
beckham
believably
belonged
blinded
boob
bra
bradford
brunos
brynner
budgeted
cam
camille
carrier
cassandra
celine
cement
chairman
chalk
charlize
cheered
cillian
cinemax
clutches
collision
comatose
commandments
committee
commonplace
companys
confidential
connerys
contender
corporations
cottage
council
crackers
creepers
crusade
cujo
danton
def
definately
delights
demonstrating
depravity
deus
dicaprio
dice
dignified
discusses
disk
disrespect
divide
dominant
domination
doubtless
droll
ducks
dummy
ealing
editors
effeminate
elephants
eloquent
embarrass
embedded
entity
ethics
exaggerating
exquisitely
extend
faceless
faithfully
fearless
flopped
foley
freddys
frenchman
gameplay
gardens
generates
getgo
gilligans
gleefully
gloves
glow
goingson
gomez
gospel
grindhouse
guiding
gunfire
halfhearted
hallways
hayden
histrionics
horseback
hottest
housing
idealism
imagining
improvise
income
infantile
inheritance
invade
iowa
jenkins
jewels
josie
kerry
kindergarten
komodo
landis
landlord
laputa
latino
laundry
leadership
leans
lesbianism
longs
loosing
luc
luthor
mainland
makings
mar
meager
mightve
mindnumbingly
miracles
misadventures
miscasting
momentarily
monogram
mourning
moviegoing
needles
noses
obelix
oppenheimer
overplayed
owed
parable
patiently
patriarch
pawn
peralta
photographers
pictured
plains
pov
pregnancy
preventing
purity
putrid
quoted
reba
reciting
recognizes
recollection
recommending
recruits
reginald
renders
resonance
revered
revue
rewrites
roaming
rodeo
ronnie
rub
sarne
sexes
shade
showgirls
silvers
skeletons
sloane
smokes
snaps
speeds
spells
spirituality
spits
stardust
stealth
stopmotion
stud
suite
sustained
swan
sweaty
sykes
sympathies
tamil
tattoo
temperature
theo
thorough
threesome
toast
tomato
toms
townsfolk
trier
twisting
ufo
uncertainty
underappreciated
unemployed
unpretentious
untouched
utilized
vary
veidt
ventures
walkers
wanda
whim
whipped
wraps
ww
youths
yrs
yul
##11
##aking
##ann
##bre
##du
##ert
##gard
##gel
##ght
##gling
##hu
##iating
##ign
##isation
##ister
##ites
##ivity
##ken
##logist
##mates
##mins
##mm
##ncing
##nies
##pot
##rating
##rid
##ros
##stone
##themed
##ture
##vie
##was
180
33
51
77
89
absorb
anchorman
announcer
archie
arctic
armand
aroused
aspire
atheist
autistic
avenger
bagdad
barcelona
begotten
belmondo
berserk
beta
bigtime
biographical
blooded
bonanza
boo
booker
boomers
borrowing
bruces
bullied
burr
bursting
caged
canadians
candid
carbon
carlitos
chad
challenger
charts
chews
chin
chipmunks
chubby
chunks
claymation
col
combo
comeuppance
commenter
competitive
concluding
confirms
contend
contents
contradiction
contrasted
contributions
coproduction
copyright
counterpoint
cutesy
cutouts
damaging
dangerfield
darryl
declares
devilish
dial
differs
dining
disappoints
dizzy
dizzying
dogtown
doppelganger
dourif
downtoearth
duet
duryea
dwell
egotistical
eldest
electrical
eleniak
elevated
emerged
employment
endeavor
envisioned
eponymous
equality
exiting
experimenting
faking
fascism
favorable
feinstone
fend
filter
finch
fing
fireworks
foreground
forgivable
forming
frenetic
fullest
furry
gackt
gandolfini
genesis
gertrude
goya
grahame
gum
guru
hacking
handing
harrys
hick
homemade
hoskins
hospitals
hosted
hottie
humiliated
humphrey
improving
impulse
indirectly
injected
insistence
invading
invitation
inviting
irritation
jeepers
jericho
jfk
journalists
kitsch
lamest
legion
lighten
londons
lumiere
machinery
madonnas
malicious
massively
mccarthy
medication
merciless
messiah
mismatched
misunderstanding
moderate
moonlight
motherinlaw
mpaa
natali
neal
newton
nikki
nixon
nobudget
noirs
obligation
occurrences
oklahoma
onset
orthodox
osborne
oscarworthy
overhyped
owens
pacinos
palestinian
parental
participated
persistent
pic
pills
plentiful
poop
possessing
practicing
premingers
pretense
probable
proven
provoke
punish
purists
raul
recognised
refined
refund
refusal
replaces
repression
rescuing
researching
reserve
reservoir
restricted
retire
retribution
rewards
rewritten
ribisi
ridiculed
roscoe
rosemary
sadism
sail
samuels
seals
separates
serbian
sg1
shabana
shaken
shawshank
shops
showcasing
simplest
skateboard
sleeves
slit
sluggish
smirk
snob
societal
spear
splash
storms
strapped
stylistically
superhuman
surfers
sweeps
taime
tango
tapping
timid
traci
transcend
transforming
trappings
treasures
triad
trophy
ubiquitous
unbalanced
uncommon
unknowns
unofficial
untold
unwanted
vacant
vacuum
vagina
verbally
vitality
weaponry
weaving
whoa
witchery
wyoming
yorks
zorro
##about
##act
##akes
##ala
##ame
##ced
##cenes
##ents
##first
##hal
##hard
##hold
##hr
##human
##ille
##inal
##ita
##ition
##ller
##night
##oe
##og
##oned
##rra
##sts
##uing
##video
##view
##zation
##zes
abandons
accuse
acquainted
actionadventure
addictive
admiral
africans
ahmad
ailing
alist
alligator
allure
amnesia
angelo
announce
announcement
antisocial
appallingly
archives
arrows
asinine
assistants
awakens
aweigh
barkers
berenger
bewildered
bilge
blanks
blethyn
blindly
boast
boggles
boogeyman
bots
bounce
boyd
brashear
breakup
breezy
brisk
brotherinlaw
brow
bulldog
camaraderie
catalog
catalogue
caucasian
ceases
chico
christensen
cleavage
clerks
clinton
cloris
coarse
coastal
coldblooded
collectors
comedienne
compliments
comprehensive
concentrating
concluded
confessions
conquers
coping
crenna
criteria
crumbling
crushing
culminates
cumming
custom
cuteness
dakota
darwins
dealings
deceptively
declare
dilemmas
diminished
disappointments
dishes
displeasure
dunaway
dunn
dyke
easiest
eerily
elevates
embarks
emil
emperors
enables
endeavors
enlightening
equipped
eras
eroticism
execute
explicitly
extraneous
extravagant
eyebrow
eyecandy
fearing
february
ferrer
fetching
feud
fidelity
firemen
fisherman
flare
flops
foolishly
foulmouthed
fulfillment
futility
gals
gardener
gibberish
gosling
gossett
greenstreet
gullible
gunshot
hacked
hampered
hari
harvard
headlines
hector
homosexuals
hordes
hotels
identifying
impaled
implication
impossibly
impressionable
improvisation
inhabits
institute
investigations
jensen
jovi
kit
knockout
kornbluth
krabbe
labyrinth
laidback
langdon
lanza
lazarus
leachman
leopard
lethargic
librarian
literate
lotr
louie
lowlife
lured
malden
manns
manor
manuel
marquis
maya
mcclure
mcnally
meatballs
medal
meetings
melinda
mercenary
mercilessly
milligan
mishaps
monitor
monument
moustache
mumbling
munro
nadia
nadir
naturalistic
neighbour
nickname
northanger
offices
offset
olen
olive
omitted
oscarnominated
outbursts
outdoors
outlaws
passages
passionately
phyllis
pi
pits
poo
port
pow
powerless
preference
pressures
pretensions
programmes
publicly
puddle
punched
raider
redeemable
regal
reincarnation
relegated
renewed
respectful
restrictions
retained
rhymes
riley
robe
rocker
rocking
romano
rooker
ryans
schindlers
schultz
scully
sera
sergei
sharky
sidesplitting
sigourney
sized
slashing
sliding
slipping
slug
software
solves
speakers
spectators
splitting
storylines
stowe
strips
submitted
suchet
swat
tamura
televised
teri
terrence
thesis
thorn
thunderball
tomei
toons
toro
trashed
treacherous
trey
tromeo
trumpet
tunnels
tycoon
uncles
underwhelming
unimportant
uninvolving
unorthodox
unsatisfied
uttered
vegetable
violin
vixen
wade
warrants
waving
welfare
wenders
whack
whatnot
whichever
wholeheartedly
wisconsin
wrecked
wronged
xmen
zu
##30
##ade
##ath
##aving
##az
##bel
##cool
##cting
##dish
##early
##ect
##eous
##fire
##gon
##heart
##ibility
##ight
##ip
##iro
##ith
##kie
##late
##let
##lic
##met
##nation
##nic
##nna
##orous
##ots
##pes
##pi
##rant
##two
##uck
##uding
##ulate
##und
##wan
1935
56
68
700
78
79
84
abduction
absurdly
activist
affectionate
alabama
alibi
allegorical
amelia
americana
amrita
ant
anticlimatic
antisemitic
apartheid
ardent
asses
assets
astute
attentions
austria
autumn
await
awardwinning
baba
backstage
baggage
bakshis
bardem
bases
bass
beals
beds
befriended
belgian
bender
benefited
bets
bio
blaine
bled
bloodless
blurry
blythe
boiling
bolts
boyish
bunker
bythenumbers
caesar
calculating
cancel
careless
carlo
carolina
castles
cautionary
celeste
characterized
cheesiest
cherished
churning
cimino
civilized
clicheridden
collapses
comebacks
comfortably
comingofage
communists
communities
complement
condensed
congress
connelly
conspiracies
conway
cooley
coolness
corky
corps
cramped
creaky
cronies
crotch
cryptic
dahl
damian
daria
darkman
decadent
deceit
deft
depp
despised
detention
discs
dishonest
downer
drifting
dusk
easygoing
effectiveness
elaine
electrocuted
eminently
enjoyably
ensures
enthusiastically
entranced
envelope
erased
erik
exploiting
exuberant
eyeball
farnsworth
fearful
fellows
ferry
fictionalized
finland
fireplace
flea
flirt
forbid
foreigner
fortunes
framework
fraser
fridge
gabby
glances
gloss
goldsworthy
gopal
grandiose
guarded
guides
hams
haphazard
harassed
harlem
hawkins
heartbreak
henrys
hesitant
hid
holloway
hoover
hunchback
hurricane
ifc
illfated
illicit
imposed
improves
incarnation
incessant
induce
infatuated
ingmar
instrumental
intolerable
irs
isabel
islanders
johansson
johnston
joline
journalism
juhi
kamal
kirsten
kooky
kruger
lamarr
landlady
largo
lava
leagues
learnt
leopold
listener
lottery
lovehate
madame
magnum
manchu
maniacal
mantegna
mcadams
mesmerized
milestone
mindnumbing
misunderstandings
mm
modine
mommy
muddy
muriel
mutiny
nefarious
newcombe
newcomers
nihilistic
nobodys
noirish
nononsense
northfork
noticeably
numbing
obese
occurrence
ohio
ooh
openminded
operates
oprah
owl
palatable
panache
pang
paralyzed
persuasion
pia
piggy
piles
pip
piranha
pitts
pleasurable
policies
pony
populate
posting
potboiler
prepares
prospero
pseudo
quickie
quips
ranked
raven
resonates
resurrected
rififi
risking
robson
rot
rug
rumor
sa
saccharine
saddled
saddles
sands
sasquatch
savages
settling
sexiest
sexism
shakti
shambles
shattering
sherry
sholay
shove
signals
slowpaced
snafu
sofa
sofia
solutions
sorcerer
sorcery
spewing
squadron
squeamish
sticky
stuffy
suburb
suitor
sultry
supplied
tainted
tanya
telegraphed
teller
terrorizing
ticked
tidy
tng
tobacco
toddler
tournament
townsend
trafficking
trousers
troy
tuning
turkeys
tyrannosaurus
undemanding
unheard
untimely
upperclass
ursula
vampirism
venom
viggo
vikings
vivien
vows
wally
weave
weller
welsh
wilkinson
wince
wisecracks
wolverine
wyatt
yuck
##ace
##ata
##bill
##bin
##body
##character
##cho
##five
##hin
##hone
##ht
##ien
##izer
##jack
##lined
##luck
##nda
##ord
##ph
##ploitation
##pper
##raj
##rit
##set
##ug
##ui
##vil
##wall
1937
237
44
82
absurdist
accidents
actioner
advancement
aggression
allied
anachronistic
andreas
angered
apples
approve
arresting
artifacts
assassinate
athlete
athletes
awkwardness
balancing
ballad
banality
bearded
bells
bemused
bens
bethany
bitterness
bla
blaise
blasting
blasts
bottoms
braff
bravely
brightly
burlesque
burroughs
ca
cahill
calculated
catastrophe
cbc
cheezy
chiba
chinatown
chopra
choreographer
clause
clunker
coffy
coherence
collapsing
colleges
colorado
comforting
commandos
commission
communicating
comparatively
concoction
contemporaries
convenience
copious
cormans
craftsmanship
crusty
cuckoos
culp
curry
curtains
cuz
dd
deluded
dench
deplorable
discrimination
disgraceful
ditzy
donofrio
dramatization
drawnout
dukakis
eccleston
eisensteins
enraged
erase
erotica
everyman
evidenced
examines
fates
fatty
fck
finlay
firefighters
flawlessly
fled
fluffy
foch
franks
freeway
freudian
geez
gil
glossed
google
goon
gorehounds
grable
grades
grownups
haim
hatchet
heated
hedge
helm
helmed
hernandez
hillary
horrorcomedy
hustle
idiosyncratic
imaginations
immigration
imposing
impoverished
ineptly
infinite
ingredient
inmate
insect
intrepid
iris
irritates
islam
jannings
jasons
jazzy
jerome
journeys
jumbled
kidnappers
knox
kriemhild
lair
leisurely
lent
levant
ling
linney
ll
lobby
loch
loggia
lolita
loot
lovemaking
lsd
luzhin
marching
margera
marsh
mattei
mattered
maudlin
mays
meltdown
memorial
millers
mira
mislead
montand
morrow
motley
moulin
mst
naomi
narrating
ness
newhart
noam
nolans
nothingness
novice
nuff
nymphomaniac
oconnor
onenote
onstage
operations
oregon
overs
pales
panel
passport
pastor
pavarotti
perplexed
pertwee
phenomena
pinup
pipes
pixote
pleasance
plethora
plummer
portal
posturing
pounding
prairie
precocious
presley
pretension
prick
protector
psychos
punctuated
puzzles
pyramid
quebec
raggedy
rancid
recalled
recordings
regina
religions
reliving
repellent
repulsed
requiem
resentment
resorts
responsibilities
retreat
richie
ridiculousness
rigg
righteous
rightwing
riots
robust
roeg
roommates
royalty
rudimentary
rudolph
saturated
savior
seamless
seduces
shabby
sheriffs
shields
sickly
simone
skate
skimpy
sledgehammer
sleuth
slutty
sock
spinster
spirals
spun
stalk
stared
stash
steiger
stinking
stoltz
streisands
stripes
suburbia
suitcase
suspiria
swashbuckling
swell
swope
tailor
taxes
technological
teenaged
teresa
thai
thinner
throughly
tighter
tossing
trademarks
traffik
trainer
trancers
tvmovie
ullman
undisputed
uneducated
unintelligible
units
unknowingly
unspoken
urges
usher
ussr
vamp
vin
waco
wagons
wan
wards
warp
wasteland
welldirected
wellmeaning
whereby
whores
wicker
wigs
wikipedia
wimp
wimpy
wrecks
wwf
xavier
##20
##anti
##berry
##cop
##eman
##ement
##famous
##flick
##ground
##iah
##kar
##lity
##loved
##lover
##makers
##mas
##nos
##oi
##ole
##place
##sibly
##sons
##uate
##uke
##ule
##unt
##uted
##we
##wer
120
2x
32
42
666
abbot
accompaniment
adelaide
admirers
adolescents
adversary
ae
allaround
almasy
ameche
amenabar
anticipating
approved
archetypal
armored
arrange
arrangements
azumi
backbone
baltimore
banging
barman
becky
bee
berger
bikinis
blades
blush
bombastic
bounces
brittany
bronsons
brothel
bumping
businessmen
butter
cabaret
caines
calmly
captors
catalyst
catholics
champions
cheapest
cheapness
chickens
classify
climaxes
collaborator
colossal
comanche
conceivable
consumption
continual
contributing
coppolas
cosmo
costarred
cotten
crammed
crater
creeping
dantes
decaying
deja
demolition
dependable
designers
digitally
disposal
dispose
dispute
distribute
domineering
dried
earp
eddies
egos
electrifying
emanuelle
engineering
englishman
enlist
ennio
err
escort
excerpts
exhibit
fares
ferris
filtered
fists
fixing
flora
fluke
fosters
foxs
fraction
frankies
frantically
fraternity
freezing
frye
gambler
garish
giamatti
gigs
gloom
gong
goodhearted
goose
gracie
graduated
gripped
grizzled
gunfights
gypsies
hairstyle
hallucination
hammered
hawking
hayao
headstrong
heavyweight
heinous
herring
hershey
hickock
highland
hindu
hodgepodge
hoffmans
hopelessness
horrendously
humorless
iceberg
icing
impersonate
import
inbred
incomparable
incorporates
increases
indicated
indictment
inn
instructions
intending
intercourse
intercut
intervals
inyourface
irreverent
itchy
ivy
jansen
jeanette
jeroen
jims
juicy
kahns
kimberly
knowledgeable
lauded
libby
liza
lore
lowly
lung
lyle
machete
majors
mamet
marco
marys
matthaus
mcmahon
meatball
meyers
mj
moby
modicum
mohr
morrison
multitude
mummys
muni
nam
narratives
nat
necklace
nicer
norway
notebook
observes
offed
opposing
oppressed
originated
outraged
oxford
pantheon
papa
pasted
payment
pearls
perennial
picker
pinnacle
poisoned
postproduction
powells
praises
precinct
prizes
pronounce
prophet
protected
pump
putney
quicker
racer
rapper
reacting
realising
recognizing
recommendations
referenced
refugees
reggie
reinforced
replete
reporting
republican
rerelease
researcher
resourceful
responses
ringu
roaring
rockers
russel
russells
salute
scars
scheduled
schlocky
selfdestructive
selma
sematary
shaolin
shaws
shinae
shoving
sidekicks
sillier
silva
ski
skirt
slain
slams
smartest
snapshot
soil
soles
spacecraft
spaceships
speculation
spill
spunky
squandered
squarely
statues
storywise
strangelove
strangeness
strangle
strive
stu
supremacy
sympathise
tan
teasing
terminally
threadbare
tibbs
tights
tissue
titillation
tornado
touring
tripping
triumphant
trivialboring
troubling
truthfully
tyra
udo
uncomfortably
undermined
ungar
uniqueness
unite
unity
unmotivated
unprofessional
unrecognizable
valiant
viewpoints
visionary
volunteer
volunteers
vu
wage
wager
wererabbit
wheeler
whomever
winding
womanizing
ye
yikes
zen
zeppelin
zoo
##ama
##ao
##arts
##brained
##burn
##camera
##cia
##cle
##erate
##eries
##fan
##fish
##gated
##god
##going
##gone
##gos
##high
##hoo
##ient
##ished
##itive
##lift
##lum
##mark
##mble
##phic
##powered
##rin
##rts
##sey
##ski
##sky
##some
##speaking
##sson
##talking
##tate
##thin
##thinking
##tier
##tley
##together
##tors
##tus
##uation
##ucci
##ural
##ust
##voiced
##vs
14th
16mm
17th
36
47
96
aamir
achilles
adjani
advocate
aiello
aimee
ale
anand
annas
annes
annette
anthem
archer
assaulted
asteroid
attackers
attain
awaits
aykroyd
baseketball
beauties
beaver
beetle
beggars
begged
bellucci
bench
benedict
benet
bess
betsy
bitterly
bogged
bordering
borg
bounds
bratty
bronx
browsing
buffoon
bulls
bygone
canal
cane
cart
caruso
cassavettes
caste
casualties
caveman
champagne
chang
clarify
cockpit
collaborations
colombian
companionship
completing
completists
conducting
conjure
conquered
constitutes
constitution
conversion
crichton
crops
crossdressing
crowning
custers
customer
cuthbert
deathbed
debating
debts
decadence
decapitation
decorated
demeaning
denominator
detailing
dictates
dieter
discern
disparate
dolly
doolittle
dour
drawback
drebin
drifts
dundee
dunst
dyan
edinburgh
efficiently
emulate
enamored
endurance
enlisted
epidemic
epiphany
equation
erica
escalating
exboyfriend
existenz
exploded
exploitive
extensively
fanning
fatherinlaw
fatherson
faulty
fave
favors
flex
flips
flirts
forbes
fragmented
fundamentalist
gamer
gavin
geena
gellar
gi
gibsons
giddy
gino
gladys
gloriously
glove
goodies
groves
gunfight
gunman
hai
harassment
heartbroken
hearty
hectic
hellish
herbie
herr
higgins
hinges
hiroshima
hitchcockian
honors
horns
howell
hrs
humming
hungary
hypocritical
idyllic
inadequate
individually
inman
innate
input
ins
introspective
inuyasha
isaac
ja
jayne
johnnie
kalifornia
kaye
keller
kittens
launching
leaning
lecter
leguizamo
lemon
liberation
limb
liner
linger
lite
loathsome
longsuffering
loomis
madeline
magnetic
manual
marginal
masochistic
matte
mcgregor
mercedes
mercer
merk
metaphysical
mimic
mist
mocked
monte
moonstruck
morgue
mph
multi
multimillion
munich
mysticism
nap
narcotics
nazarin
nc17
neo
nevada
nighttime
nodding
nostril
nubile
ole
omega
oozes
opener
orchestrated
orphaned
overdose
overhead
pap
patronizing
penns
pervasive
pours
powered
pristine
priya
profane
prompted
propel
proportion
prosecutor
prospective
psychopathic
puffy
quotable
ramble
rang
rebirth
rehab
relic
reprises
rhys
riches
rituals
robs
roddy
routinely
rpg
rutherford
sacrificing
sailing
scorpions
scouts
selfserving
separately
shave
sheesh
sheffer
shia
shortened
sleepwalkers
slime
slowed
smashes
snapped
snoop
snowballs
someplace
specialty
splendidly
splendor
sprawling
stanwycks
stationed
steadily
steward
stoop
strands
strauss
strippers
striving
stupider
subtitle
sunglasses
superstars
suspiciously
tabloid
teaming
teds
template
tempo
terrorized
th
theatrically
thinnes
toilets
tolerant
tonto
tosses
trainwreck
travelers
tuesday
turtles
unavailable
underbelly
undercurrent
undermines
unfolded
unintelligent
unintended
unmemorable
unravels
unscrupulous
uzumaki
vanish
varma
verse
victorias
virgins
viscontis
visibly
voyeuristic
wallach
wannabes
warmed
wayward
weep
welldeserved
wistful
wobbly
workings
wrestlers
zoe
##01
##50
##acle
##acy
##ae
##black
##bon
##bus
##cape
##cats
##cene
##chs
##cio
##cker
##cript
##ders
##effects
##ency
##eze
##films
##frame
##gram
##icle
##ids
##ii
##lins
##lk
##llis
##lman
##mated
##mus
##nian
##ona
##ook
##paced
##people
##phile
##plex
##rel
##ret
##rg
##rum
##ship
##sie
##tering
##tha
##tling
##tos
##trip
##urable
##ution
##vable
##val
##vated
##when
##will
##yr
##zie
##zzle
1929
1961
35mm
90210
abundant
abusing
accolades
accusations
additions
aditya
adoptive
afar
airs
alexis
alienate
allout
aloud
altering
ambient
ana
anal
andersson
angus
anticipate
antithesis
antonionis
applying
arabs
atkins
attendance
audacity
avantgarde
axel
babettes
balances
banker
barking
barrage
barriers
barthelmess
bashed
bea
beep
blondes
bloodline
blur
boil
boiled
bootleg
booty
bottles
bowls
brighter
bronte
brontes
bubba
capitalist
carlito
casa
catastrophic
certainty
chabrol
chamberlains
cheeky
choi
chuckling
claws
cleveland
clipped
cohesion
colleen
column
commend
complicate
comprehension
conducted
conform
constructive
consultant
corrupted
costarring
courts
critter
croft
damien
dane
dangling
darko
dawsons
debatable
degenerates
delusion
derive
det
detriment
devastation
devised
discredit
dispatched
disrespectful
distortion
dives
dorian
dough
drafted
dreamworks
dripped
droning
drool
drowns
dye
electronics
elwes
embodies
embraced
enforcer
enlists
evils
evolving
ewan
exhibited
experimentation
faulkner
feathers
feeds
finesse
flatout
flipped
foreman
forthcoming
founded
fringe
frogs
gazzara
gimmicky
glitter
gogo
gonzo
greenwich
greeted
grenade
groovy
guerrilla
guidelines
hacker
hartman
haven
headquarters
hedy
hefty
helplessness
hulking
ideally
identification
imitations
imperfect
incongruous
indicating
indistinguishable
inherits
insisting
intents
invisibility
irvin
jeanne
jeanpierre
jekyll
jj
jocks
johnsons
jouvet
jumpy
jungles
ka
korda
labour
lacklustre
lamb
larrys
leaden
liev
lifting
lined
loathing
looming
ludicrously
lulu
manure
mcbain
mcdonalds
mcintire
messes
mexicans
mikes
misogyny
missouri
moreau
mounted
moviegoer
naming
naruto
nicky
nominee
noodle
notoriety
obliged
oeuvre
oldschool
oral
ouch
outlet
overlooking
overpowering
packing
paste
peebles
peeping
penguins
periodically
persuaded
persuades
peru
poisonous
portugal
powerhouse
pr
preferable
privileged
productive
protocol
prue
psychosis
publics
qa
quartet
rally
raquel
recapture
recognisable
reconcile
redone
reflective
reincarnated
reloaded
replied
republicans
requiring
revolved
rhodes
richness
roar
ropes
rosanna
sabu
salad
sandlers
savannah
schreiber
scorseses
scrap
screenings
secondrate
selections
selfishness
serene
shahrukh
shelly
shivers
shook
shrewd
shudder
sidelines
sideways
simulated
sizes
skillful
skirts
slaps
slums
soaked
solemn
sombre
somebodys
sony
soo
sooooo
spilling
spoils
spout
steiner
stepford
stoners
strains
stratten
stressed
stricken
strives
stuntman
sturdy
sued
surrealist
takeoff
tate
tattooed
tatum
telegraph
tens
terence
thematically
thinly
tick
tingle
tito
tracey
transformations
trusting
twentysomething
una
unacceptable
unbeknownst
unconditional
undone
unjustly
unlimited
unmistakable
unquestionably
unrelenting
unsuccessfully
vancouver
variable
vinci
violated
virginal
vittorio
vomiting
waiter
wales
waqt
waterfall
whodunnit
wholl
wray
wrists
yakuza
yash
yo
zboys
##12
##aire
##ale
##bb
##bles
##bomb
##bug
##cate
##cated
##changing
##chin
##cious
##crime
##cted
##cute
##death
##dic
##door
##ea
##elle
##ex
##family
##fold
##friendly
##from
##gating
##gie
##gn
##gna
##great
##hh
##horse
##iary
##igan
##igned
##irs
##ital
##iter
##lant
##lay
##lds
##lets
##lf
##lian
##liest
##lish
##lling
##nded
##now
##ows
##pack
##pan
##port
##race
##rb
##reach
##rist
##rove
##rp
##she
##sion
##taking
##trained
##ulated
##ulates
##uro
##using
##very
##weight
##where
##zs
##zz
46
54
8th
93
aardman
ab
adamson
adopts
adrenaline
adulterous
affluent
aficionados
afloat
afro
akira
allergic
allusion
amar
analyzed
andie
andrei
apathy
appealed
arbuckle
archival
argentina
aschenbach
attacker
automobiles
bake
bakers
ballads
ban
behindthescenes
bodily
bohemian
brandos
breathtakingly
breeze
brinke
broadcasting
broderick
brushes
bullshit
bums
calamity
callous
cancan
capotes
carax
carrere
carreys
certificate
chatting
chawla
cheapo
chilly
choked
chronology
churn
churned
cinemascope
cleans
cleese
clifford
clique
compose
compulsive
congratulate
conrads
coolio
cooperation
corrected
counselor
cranky
creasy
cricket
criticised
crouching
cum
dagger
danner
dannys
dearly
deceived
decently
decipher
degenerate
delay
dennehy
devout
dexters
dickson
dino
disappointingly
dismemberment
distracts
distressed
doubting
downtrodden
dramatics
dummies
dune
dungeons
dwarfs
easter
eclectic
educate
eighty
eliza
embraces
emotive
emphasized
ethereal
eustache
euthanasia
executions
exemplary
exhibition
farmhouse
fawcett
fellowes
ferocious
fiercely
firsthand
flatliners
flavour
fleming
flickering
flush
flushed
fore
forman
foxes
foxy
fractured
fragments
frankensteins
frustrations
gail
gargantuan
gathers
gator
gaudy
genitals
ggirl
gleason
graced
greasy
greystoke
groin
guevara
gunpoint
hagen
hammerhead
haneke
hanson
harlow
haters
hay
hendrix
hilliard
homages
honored
hoodlum
hush
idiocracy
illconceived
inches
indemnity
ineffectual
inherit
inhuman
innocently
innumerable
installments
interviewer
intrigues
inventions
jammed
jawdropping
jonestown
journal
judi
k9
kari
kibbutz
kirkland
knute
krige
lads
langs
lapd
laptop
leering
leonora
lifestyles
lukewarm
maclaine
maestro
maggots
magoo
maine
manchester
manipulates
manipulating
marina
marsden
mastroianni
mcdonald
mcguire
mclaren
mega
merkerson
meteorite
michele
militant
mirren
mischief
mod
mortensen
motorbike
munchies
nada
nary
ne
neednt
nemo
neon
ninth
nobility
nonactors
notoriously
obsolete
occupants
oclock
octopussy
odessa
offends
operative
orca
orientation
overcomes
owing
parole
partition
patently
pearce
peasants
pedro
peer
peppered
permeates
perpetrated
perpetual
pesky
philo
photographic
pill
pimlico
pino
pockets
pointofview
ppv
prague
pretentiousness
promo
proposition
prose
provincial
provokes
purgatory
queer
quo
raf
ramons
recovery
reenactment
refrain
remarked
resides
resting
retread
reverence
revisionist
riveted
rizzo
ronny
rushing
santas
scan
scant
schizophrenia
scrutiny
seated
seeds
selves
sendup
serpent
sewer
shahid
shakespearian
sharply
shooter
sided
silently
simons
singh
sissi
slackers
sliced
smiled
socialite
solitary
sorvino
spanky
spectacles
spellbinding
spray
stairway
standouts
stem
stephens
stomping
stroll
succumb
sullen
supervisor
surly
swain
sybil
tailored
tails
tapped
terrain
terrifically
texts
thirsty
thwarted
tori
torrent
touted
trails
trance
trashing
trevor
uncovered
undergo
unflinching
unhealthy
unprecedented
unsubtle
unworthy
vidor
vonnegut
wailing
watkins
wednesday
whipping
whit
wipes
woodstock
wtc
xena
xica
yimou
yummy
zabriskie
zeta
zucker
##15
##80s
##ab
##abe
##adventure
##ail
##aling
##ashi
##ators
##aux
##ave
##bach
##bat
##bber
##bia
##bic
##boys
##capes
##cence
##cier
##cked
##dan
##dian
##dled
##dubbed
##fies
##gation
##ggs
##graphy
##har
##hating
##hen
##hit
##iled
##inated
##ingly
##ision
##isms
##itzer
##job
##jos
##kos
##laden
##lb
##len
##leys
##mad
##media
##mers
##mies
##mping
##net
##nings
##ntal
##och
##omething
##onic
##oran
##ori
##pt
##rine
##sex
##sha
##stein
##through
##tto
##uay
##uch
##ulous
##uses
##vey
##wski
2000s
37
49
57
76
9th
aboriginal
accuses
achingly
admiring
adolf
advertisements
afroreggae
ahem
ahh
airplanes
alias
almodovar
amelie
apathetic
appreciates
arlington
armies
arranges
arthurs
ashraf
asians
assassinated
assaults
ateam
audacious
auditioning
auntie
aviation
awaited
azmi
bah
baked
barbaric
barclay
barf
basterds
batista
beasts
befriend
bid
blackie
blacklisted
blasted
blocking
blowup
bog
bogosian
bosss
breathes
bubbly
buddhist
bulging
bumped
butchering
cabal
calf
caller
cambodia
capra
carlton
cassette
catandmouse
cautious
celebrates
chanwook
chili
chronic
chucks
cky
claptrap
classmate
cleared
cliffs
clouzot
clutter
colonial
columbine
competitors
concise
confrontations
connolly
consent
constance
contradict
coroner
costly
covert
creepiest
crowhurst
crows
crucified
crud
cuddly
curb
curtiz
cutout
damp
dang
dani
darkened
davidson
deathstalker
defeating
deprived
descending
desserts
dictatorship
didactic
discomfort
discoveries
dismissal
diver
dominique
doorway
doubles
draculas
dramatized
drews
drilling
drone
duly
dv
ecstatic
egan
elias
elves
enable
engineered
erm
esoteric
everytime
excused
exec
exhusband
exile
expansive
extends
famously
fangs
fantastical
fatima
feather
ferrell
fiddle
filters
finances
flashdance
fletcher
flute
fooling
fountain
franchot
gamble
garb
geographic
gist
goldsmith
grimy
grunts
guiness
guitarist
hamfisted
hazel
hearn
heed
hemingway
hillbillies
hokum
homely
hopping
hoppity
horton
hostess
houseman
howdy
hunts
hurried
ideological
impotent
indicative
injokes
insecurities
insufficient
interference
interludes
interwoven
islamic
issued
iwerks
jada
jade
jameson
johnnys
kali
ketchup
kharis
kieslowski
kindred
knowingly
koontz
krishna
krista
kronk
kurosawas
kuzco
lagoon
lancaster
lawman
lenses
leones
lerner
leroy
lila
lillian
limo
linking
lithgow
littleknown
lizzie
loathe
lodge
longlost
longwinded
lookout
lounge
lurks
luxurious
macready
madge
manhood
maniacs
manny
marianne
marsha
masterwork
mat
mawkish
mazzello
mcintyre
meals
metamorphosis
misled
molina
moons
morale
morricone
mostel
mug
musically
nagging
nausea
nausicaa
negatively
netherlands
nitpick
oakland
occupy
offs
offthewall
opposites
ordering
oswald
outpost
overkill
overwhelm
ozu
packaged
pakistani
pando
panther
parked
parkers
peaked
pepe
peripheral
perplexing
personas
peruvian
pessimistic
philippines
pics
pike
pinned
plagiarism
pollution
portia
portraits
potty
preferring
prevail
priority
programmer
protests
provoked
pseudonym
pupils
queue
quincy
radiant
radios
rag
ragged
rampling
rants
rappers
raveena
reaper
recreates
redhead
regretted
reiner
religiously
removal
renamed
reread
restaurants
rethink
rican
rife
ringo
robbie
rounding
rugrats
ruling
ruthlessly
sadie
sage
salary
sammi
sas
sawyer
scarce
schmaltzy
scissors
scowl
screeching
scripture
scrubs
se7en
sherri
shouted
shreds
shrinking
shue
shunned
sierra
silliest
siren
situated
slides
slumming
smartly
snail
snobby
soapopera
solitude
soviets
spartans
specialized
speedy
spilled
sri
stacey
stallones
standoff
stinkers
stormy
striptease
sturges
summarized
summing
surefire
surpassing
sutherlands
synchronized
tackling
tadzio
tangible
tanner
tennant
terrorize
teutonic
thomerson
tilney
titans
tobias
tore
traced
translates
translator
treason
treasured
trump
tsui
twentyfive
umm
uncontrollable
undiscovered
unimpressed
uninterested
unleashes
unscathed
unsung
unto
valentino
vegetables
veneer
venezuelan
venue
versatility
viceversa
victimized
viking
voyeur
vulcan
weirdly
wellington
westerners
whistle
whistling
widows
wilders
winger
winslet
workaholic
worldly
wrapping
yada
yankee
yay
yearn
yorker
yusuf
##50s
##90
##again
##anna
##ap
##arm
##aur
##because
##cchi
##cial
##coming
##ctor
##dad
##dar
##date
##dead
##dra
##eb
##ech
##econd
##ection
##edup
##eed
##eers
##elia
##eon
##fantasy
##ffer
##form
##guy
##hetic
##hire
##hop
##ides
##ience
##imensional
##itis
##jones
##lance
##lass
##lings
##lord
##lts
##mable
##most
##mouthed
##mystery
##new
##ngs
##nks
##orn
##ound
##owed
##pel
##phere
##player
##pool
##pose
##print
##pton
##racy
##rams
##rge
##rice
##rite
##runner
##tant
##times
##tist
##try
##uction
##uded
##uer
##vo
##yman
##zia
##zio
16th
1922
83
87
abandoning
abe
aborted
admitting
aesthetically
affable
afflicted
afi
aggravating
aishwarya
alexs
alices
allinall
alterego
amazement
ambassador
ammo
analogy
antagonists
antiamerican
apology
appreciating
artillery
assures
astoundingly
attends
attire
attribute
australias
awaken
banner
bastards
bb
bbcs
beam
beguiled
believers
bestselling
bewitched
bimbos
blandings
blender
blurb
bobbie
bookstore
boorman
bouchet
brats
bravura
brazen
breakout
brewster
brigade
broader
bruckheimer
bryant
buckets
bureau
burrows
buses
canoe
cashin
catering
catharsis
celestial
chant
charging
charitable
cheerfully
choking
chronologically
chuckled
circling
cock
collaborated
collide
comedydrama
components
concocted
consumer
contaminated
corridor
counselors
cozy
crafty
crazier
creed
creeped
cruelly
culmination
cultured
curves
cyborgs
cylons
daylewis
dazed
deans
decor
defiant
degradation
delayed
delinquents
descend
dialouge
diaries
dil
disinterested
dismay
disposition
docs
doe
dolby
donner
dorky
drawer
dribble
duchess
dumbing
dumping
durante
dwellers
economical
embassy
embodiment
enabling
endangered
enigma
enlightenment
entangled
everythings
exceeds
excluding
executing
exiled
explosives
extract
fanciful
fanfan
favela
fawlty
fiona
foes
fold
folly
forests
friction
friggin
ft
fundamentally
gardiner
ghoulish
glaringly
glorify
goer
gordons
gorillas
gradual
grams
grandchildren
gravitas
greens
greetings
gullivers
gymnast
haircuts
hairstyles
haley
hallam
hanna
harilal
hartnett
hauntingly
hays
heavies
hermit
hijinks
hinting
hippy
hirsch
hiv
hog
homecoming
homeward
hooking
hoops
hostages
html
humiliate
ichikawa
identifiable
imminent
imperfections
implausibility
incessantly
index
indulgence
infection
infested
infiltrate
injustices
innocuous
invaded
inventing
irritatingly
jackies
jacobs
jang
jeanclaude
jeanluc
jeffries
jets
joss
jumble
kareena
kasparov
kgb
khouri
kin
kirby
kusturica
labels
ladd
lamberto
landau
lapse
latinos
legit
leoni
liberally
liberated
lighted
listings
listless
loyalties
lungs
lyric
mannequin
marbles
masculinity
masochist
mastered
maxwell
mcshane
meaty
mechanism
melancholic
melodies
melodramas
memorized
meticulous
mimicking
ming
minion
minnesota
modified
mogul
molested
mozart
multilayered
mutilation
nah
naivete
naivety
nationality
nipples
nuisance
nypd
objections
observant
obstacle
obtaining
offending
onwards
opting
organizations
osullivan
outcomes
outofplace
oversized
overthrow
paces
pacifist
pancake
parting
patrons
payback
pendleton
penetrate
percentage
perceptive
philosopher
pickpocket
pidgeon
pigeon
pioneering
pittsburgh
politely
pork
powder
promos
promotes
pulitzer
pumped
pumpkin
pyrotechnics
quantity
quits
radford
radically
radium
rails
raining
ramblings
rapport
reconsider
redeems
redfords
rehearsed
renny
rents
repetitious
replicate
reprising
requirements
resigned
resounding
retard
revel
revere
rewatched
rewatching
riffs
risible
roam
rochon
romantically
romanticism
roseanne
royale
rubin
safer
sampedro
sauce
savini
scar
scathing
sceptical
scholarship
screentime
seething
selective
selfesteem
selfloathing
sensationalism
sepia
shaq
sharkys
shortage
shrieking
shuffle
sicily
silhouette
simba
singles
slant
slicing
smacks
soaps
sob
sobaditsgood
sol
solidly
spacek
spat
speculate
sphere
spotting
sprung
spur
spying
stagy
stems
stint
stirred
streeps
strife
stupendous
subliminal
succumbs
suggestions
summers
suppress
surpass
swears
sweetest
synthesizer
tactic
tamara
tangled
tar
teachings
teeny
tempting
thaw
totalitarian
tougher
toughest
transpires
trickery
trimmed
trippy
troublesome
ts
tully
ugliness
uncovers
undermine
undeserved
unease
unedited
unjust
unleashing
unpopular
unsurprisingly
utilize
uttering
varies
veers
vendetta
viable
vicar
vii
volatile
weddings
wentworth
wiping
wizards
wolfe
woronov
wreak
xxx
yearns
yugoslavia
yuzna
yvette
zelda
zip
£1
##0s
##80
##98
##acing
##ads
##armed
##atch
##bee
##buster
##cating
##chy
##cold
##cope
##cription
##dancing
##daughter
##ddling
##dont
##dos
##ein
##etting
##gar
##girls
##hardt
##have
##here
##hollywood
##iance
##ias
##iation
##iff
##iko
##ilia
##inating
##inger
##inspired
##iously
##iya
##je
##lines
##lip
##lovers
##meter
##miss
##mity
##mos
##moto
##ndo
##nery
##nik
##ntly
##offs
##oist
##ooo
##oot
##owing
##pic
##plane
##ple
##producer
##ques
##rape
##robe
##rons
##rous
##sco
##sel
##tail
##tead
##ths
##tised
##ulent
##ung
##uss
##vel
##violence
##wielding
##writers
##yearolds
10th
1900s
42nd
43
67
accented
accomplishes
acrobatics
activists
admires
aidan
ambulance
amc
anachronisms
angelic
antifreeze
appreciative
arcade
argues
aristocracy
artificially
aubrey
avalon
backseat
baloo
bams
bananas
banderas
bankrupt
banquet
barbarians
barefoot
bathed
battered
battery
bedtime
beethovens
benchmark
bettany
bidding
biehn
blanket
blier
blossom
bluntly
boasting
boggling
boggy
bolivia
bolo
bombarded
boobies
boorish
boreanaz
bothersome
bourgeois
brackett
bricks
brimming
bulb
bulgaria
bulgarian
bullitt
bullocks
bureaucracy
burying
cannibalistic
caravan
cater
cathartic
chagrin
champ
chap
chatter
cheery
chester
cheyenne
chi
chipmunk
christies
cigars
cinematically
clashes
claustrophobia
clicked
clinical
cloying
cnn
collapsed
columbus
communications
conceal
conceive
concerts
conrack
contrivances
coopers
copper
cornball
cornered
cosby
cranes
crank
cranked
crapfest
crave
cruddy
cruella
currie
cusacks
cynic
daly
dammes
danielle
dashed
database
defeats
defects
detect
dianes
dip
dispatch
displaced
distressing
divorcee
dominoe
donkey
downstairs
drawbacks
dullness
dyer
edna
elaborated
eliminating
employers
engines
exemplifies
exteriors
falsely
fanatical
fargo
farrah
fastmoving
favelas
fey
filipino
fingersmith
fireball
flooded
flown
focal
follower
fondas
forefront
forster
franchises
geer
generating
gigolo
glib
glitz
gram
gratitude
greeting
grenades
grossed
grueling
gump
gunshots
guttenberg
guzman
hana
harassing
hardhitting
hardwicke
harley
harlin
harmed
harmon
haruhi
hebrew
helga
heman
highlander
hijack
hmmmm
hoax
homoerotic
hooded
hoodlums
horner
hostility
humanoid
hustons
hyper
hyperactive
hysterics
impromptu
inbetween
incarnations
incriminating
indelible
independently
indies
indoor
inexperience
inflict
inoffensive
institutions
interchangeable
interracial
invaluable
iota
itch
jaffar
japans
jeez
jeffs
jerrys
jolt
jorge
jumbo
junkyard
justifies
karens
kattan
keeler
keenan
keyes
khans
knot
krell
lamour
lamp
languid
leaf
leelee
leftist
lelands
lemmons
levinson
lifelike
lindbergh
lindsey
listeners
lloyds
lobotomy
logans
lowgrade
luchino
luciano
mace
madcap
mahmut
makeover
mammoth
marius
marky
matheson
mayan
mayer
mc
mccord
melted
melts
memphis
mercury
messenger
metro
mi
mid90s
midair
midian
midwestern
mindboggling
missionary
moll
monaghan
moneys
mono
montreal
moralistic
morose
morty
motifs
mould
mumbles
mythic
n64
narrators
nastiness
naturalism
neighboring
nephews
nielson
noname
nondescript
nonlinear
nutcase
objectionable
obligated
obtained
odonnell
offputting
olympia
ossessione
overzealous
ozzy
participant
pasts
patekar
paulo
peg
pena
penetrating
perceptions
permit
permitted
persuasive
pieced
pies
pitcher
pitiable
plastered
plates
playground
plumbing
pluto
pod
poked
porsche
predominantly
pressing
prisons
prissy
proclaimed
proposed
protesting
protracted
prude
psychopaths
puberty
purports
putupon
rachels
racially
rahul
railsback
rainer
rajpal
rapping
reacted
realms
reappear
recorder
recounts
redheaded
regrettably
rehashing
reliance
removes
rereleased
reside
retitled
retrospective
reused
reve
richest
ridicules
robespierre
rodgers
rohmer
rumored
rv
saddened
sank
savagely
schroeder
scorned
scrappy
scriptwriting
sect
selfdestruction
shaving
sheltered
sic
sienna
silents
skaters
skeletal
slaughtering
smells
snider
snobbish
sp
spectre
spellbound
sporadic
sporadically
squeaky
squire
stacked
statistics
stew
stirling
stokes
strays
subs
sunken
superheroes
superiority
suppressed
suyin
swifts
symbolizes
syrupy
tack
tagged
talespin
talkative
taps
tarkovsky
tashan
tautou
teased
tel
tempered
texan
theology
thirdrate
thompsons
tigerland
tnt
tobel
tolkiens
tos
tourettes
transfixed
transfusion
tribeca
trifle
trish
trusty
tvm
twothirds
tyranny
tyrant
unadulterated
unarmed
unfulfilled
unparalleled
unrequited
unsolved
unsophisticated
unspeakable
unthinkable
updating
urinating
utilizing
vatican
veins
venezuela
verbatim
veritable
verve
viola
vol
vortex
wai
wary
washingtons
watereddown
weakly
weeping
weigh
wellintentioned
whips
whisper
wildest
windshield
withdrawn
withstand
wodehouse
womanizer
workingclass
wrestle
writhing
wrought
wu
yanked
yankees
##40
##47
##ado
##alist
##ances
##ash
##ater
##bbled
##bbles
##bbling
##bc
##brush
##cat
##cca
##cond
##das
##dd
##defined
##dell
##dome
##dr
##eating
##elli
##ep
##fed
##feld
##ffs
##fighter
##get
##gies
##guard
##hall
##heels
##heim
##hia
##horn
##ida
##ident
##ining
##inous
##ito
##laced
##lash
##lessly
##lking
##lter
##manship
##meister
##mey
##motion
##nit
##non
##odd
##ong
##oni
##ool
##other
##own
##pable
##page
##perfect
##phone
##range
##ray
##rch
##read
##rican
##ridge
##rio
##rious
##rry
##run
##rying
##scale
##shi
##shot
##something
##tation
##tish
##tled
##trap
##truck
##tters
##uf
##uling
##uration
##uth
##vitz
##von
##vres
##vsky
##women
##written
##yon
12yearold
1914
1921
1⁄2
29
2d
31
360
38
53
92
abandonment
aborigines
absurdities
accountant
acres
adrienne
afghan
alamo
allyson
alternating
amin
analyzing
andys
angrily
anybodys
appointed
aquarium
arabian
arbus
archaeologist
aristocats
arsenal
assembly
asshole
astounded
attach
attractions
au
audible
augustus
autopilot
aviv
awakened
awesomely
axis
ayers
babbling
babylon
badge
bafta
barnyard
bassanio
beatrice
beavis
beefcake
bestiality
bevy
bikes
binoculars
blackboard
blaming
blindness
blocked
blunders
boasted
bobcat
bogdanovich
boleyn
boomer
bowery
bowie
boyhood
bozz
brandy
breaker
brightest
bunuels
burgeoning
burger
bushes
cabinet
captivates
carnal
carrera
carters
cease
centerpiece
chestnut
ching
churchs
claudio
cleansing
cloning
clothed
coaching
colorless
columnist
communicated
compass
compensated
competitor
concealed
concede
conformity
congressman
consciously
constitute
courtenay
coven
crimson
cripple
cub
culkin
cults
cylon
damning
danning
davenport
davy
daytoday
debuted
declaration
decrepit
defiantly
denies
depalma
descended
detracted
devon
devote
devour
diluted
dingy
dinos
diplomat
diseases
disgustingly
disillusionment
disliking
disposable
dissatisfied
distaste
distractions
distrust
disturbingly
ditch
divers
dolores
dominating
dominion
dons
doorstep
dot
dp
drunks
ds
duds
embroiled
emile
employing
engulfed
ensuring
escapades
eskimo
esposito
evade
evangelical
evoking
exercises
extraterrestrial
farming
farrelly
favours
ff
figuratively
fineman
firstclass
flags
flamenco
flights
floriane
flowed
fluent
forceful
forewarned
forsaken
forte
fortress
freakin
frighten
fruition
fujimoto
gabrielle
gateway
gawd
geography
gigli
glamor
glimpsed
glitches
glorifies
gowns
gracefully
grandmothers
grants
grapes
grated
gratifying
gregg
grendel
grieco
grinding
grisham
grossing
guillotine
gushing
halle
hampton
harmful
hattie
haughty
havilland
heaps
heartbeat
heartrending
heche
helms
heroics
hideout
hiking
hitchs
homers
hooray
horrifically
hotshot
hull
humdrum
humility
ibm
idealist
identifies
immaculate
impose
inconceivable
indestructible
indulging
inescapable
ingram
injection
inlaws
intensive
interfere
irritate
javier
jc
jockey
julians
juon
justifiably
juxtaposition
karwai
kellerman
kelsey
killian
kinetic
knightly
knit
knotts
koreans
kristy
labored
lamer
largerthanlife
leftwing
liberals
loach
lorne
loveable
lovecraft
lows
lucid
luggage
macdowell
machina
macleane
macys
magnificence
malta
manchurian
mangled
manifest
manifested
martel
marxist
marykate
matador
matthews
matured
maude
mediterranean
metaphorical
meticulously
mic
michigan
misunderstand
mithi
modeled
mon
monotony
morita
morrissey
motto
mouthed
mraovich
muck
muller
mullet
mush
mushrooms
nacho
natured
needy
negligible
neonoir
newsreel
nigh
normalcy
novaks
oldman
oneliner
oneman
ontario
operator
osama
oshii
otherworldly
outdo
oversexed
oxygen
pact
palsy
parenting
patented
paved
pedigree
perils
persecution
personable
petes
philips
phillippe
phoning
pianiste
pinpoint
pitfalls
plagues
pleasence
plotlines
plunges
pointlessly
poisoning
polanskis
poncelet
popculture
porch
potatoes
preface
premature
preteens
prettier
priyanka
probation
probing
prof
promiscuous
province
puppetry
puri
purposefully
qualms
ramirez
raves
reclusive
recovers
remastered
renfro
repulsion
revels
rhysdavies
ribs
riddles
risque
robards
rosa
rubble
ruben
satiric
saucy
sax
scandalous
scanners
sceneries
schlesinger
scholars
scorcese
seller
sensitively
sexploitation
shipped
shores
shreck
sickeningly
silences
simran
singapore
skinned
sledge
sleepless
sloppily
smalltime
snowball
soppy
sorrows
soulful
spilsbury
spiteful
spocks
sponsored
spreads
squalor
srk
stagey
stahl
stallion
statham
stein
storage
submerged
substituting
subterranean
superpowers
supporter
surrogate
swarm
sway
swirling
sworn
syndication
tak
tantalizing
tastefully
televisions
terrestrial
thespians
thy
tires
tobey
tomlinson
torrid
travelogue
trenches
trends
tshirts
tubes
twister
ty
ugliest
uncovering
uninhibited
unreasonable
urmila
utopia
valeria
validity
vargas
vent
verne
viet
vigorous
villainess
vincente
vipul
vistas
voyeurism
wargames
warhol
warms
warranted
weir
weirdos
weissmuller
weston
whiskey
wily
wines
wired
woodward
workout
wrinkle
wrongs
xmas
xrated
yanks
yuppie
zizeks
zodiac
##ag
##although
##ami
##andahalf
##asing
##ati
##balance
##bell
##bes
##bie
##bies
##blade
##bourg
##breaking
##card
##cd
##cking
##cos
##dam
##ddle
##drawn
##east
##eration
##ero
##eus
##ev
##ffe
##fights
##filmed
##flower
##front
##had
##heavy
##hhh
##ibly
##ief
##ieving
##ike
##ilian
##including
##ishes
##ishing
##itch
##itt
##iz
##killing
##lina
##lio
##lot
##lous
##lute
##nan
##nel
##nto
##ogue
##oh
##ores
##oz
##pal
##plus
##post
##press
##quin
##rest
##rf
##rical
##ried
##scene
##seen
##sibility
##smith
##space
##takes
##tern
##torm
##tort
##tro
##ttes
##uating
##ught
##uk
##ume
##ury
##vas
##version
##vic
##vich
##vies
##vious
##wash
##wig
##ww
##yard
##yas
##yes
##yet
##young
01
05
102
1918
63
72
81
abetted
abiding
aboveaverage
accounting
ackland
actoractress
adoption
advantages
adversaries
affliction
afoul
afterwords
agencies
aide
akshaye
alluded
altar
amicus
angelopoulos
antony
anxiously
apna
applegate
application
appointment
arcane
archaic
argentinian
ascent
asides
aspires
asserts
aural
aussies
avengers
babysit
bakery
baloney
bangs
bannister
bardot
barkin
barrys
beams
beery
bees
befuddled
belts
benevolent
bennet
berkley
bernstein
beset
betraying
bigelow
bigoted
binder
biology
bjm
blandly
blinking
blouse
bluth
bobs
bogarde
bolkan
bolt
bombshell
bonkers
boxers
brake
brim
brimley
broadly
bronze
brook
brutish
btk
bubbles
budapest
budgetary
buds
bundle
busty
camel
cannons
carols
cartoony
cellphone
censor
ceo
cercle
ceremonies
cetera
chambers
chapa
charmingly
cheerleaders
chefs
chewed
chiles
chillingly
chimp
churches
circular
civilisation
clair
claudine
clearing
clocks
cohn
collections
collects
colonies
commissioner
compensation
completes
concur
conned
contradictions
counseling
counterculture
courting
crossroads
crouse
cruises
curio
customary
cuter
dahlia
dallesandro
daryl
decker
declaring
default
defying
depart
derives
desirable
deteriorating
dev
diagnosis
diction
diminish
dimwit
discerning
donate
doodlebops
dork
dowdy
drago
dreamer
drumming
dtv
dwells
echoed
elviras
embracing
emergence
emoting
endowed
enlighten
entails
entertainments
entourage
eraserhead
erics
eternally
evaluation
evergreen
everlasting
excursion
execrable
expressionist
extinction
extravaganza
fabricated
facilities
fahey
falon
falters
farrow
favored
feces
feds
financing
fingernails
firefighter
flailing
flaming
flashlight
flic
flirtatious
flooding
florinda
flourishes
flu
foray
forensic
forwarded
forwarding
fraught
freespirited
frighteningly
fueled
fullon
fuse
garrett
genetics
germs
ghibli
giancarlo
gilda
goody
grader
graduates
grandmas
grisby
gugino
gulf
gungho
gunmen
haggis
haig
hairs
hammers
hardys
harlins
harts
hasbeen
havana
hayward
hazy
headline
heartland
heartstrings
hehe
hemmings
herzogs
highbrow
highs
himher
hobbits
hops
hose
howls
hyperbole
hypnosis
iago
icecream
imax
immerse
immune
impatient
impersonator
implore
implying
impressing
imprint
incubus
induced
inflicting
infused
inglorious
inhumanity
initiation
injects
innocents
insatiable
intertwine
intervenes
interviewees
investigators
janice
julius
kates
kelley
kicker
kip
klan
labute
lanka
lawless
legions
leisure
leos
letterboxed
lew
lis
littered
liven
looms
loopy
lucifer
lustful
lynda
madrid
mahoney
majesty
malice
manna
maradona
marches
marley
matuschek
mavens
meddling
meeker
mei
mercenaries
merle
merrill
mesh
messengers
meter
mgms
milan
milked
mimi
minstrel
minuscule
miyagi
moaning
mockingbird
monarch
mononoke
morales
mordrid
moreso
morphs
multifaceted
musics
nandita
nasties
natures
nay
nearing
neighborhoods
newborn
nipple
oberon
objectively
offensively
olga
olympics
orgies
otis
owls
painstakingly
painters
paolo
parliament
parsifal
payed
payton
peanuts
percy
perdition
perpetrator
perseverance
petition
petulant
physique
pine
ping
pins
platitudes
playhouse
pleads
plump
poodle
porkys
poured
pows
prc
pressured
pretext
prevails
privacy
proclaims
projecting
projector
propelled
propose
proprietor
publication
publish
pudding
pumpkinhead
pupil
pyun
quibbles
quieter
racy
rags
rail
rammed
ramshackle
ranma
ratnam
ravens
reclaim
reeling
reformed
reg
reigns
reimagining
reinhold
renditions
rentals
requests
requirement
reservation
resists
revisited
revolutionaries
rewriting
rico
rigged
rios
robby
roberto
robes
romane
romans
romcom
romulans
rosy
rowdy
rubbed
ryder
sadomasochistic
saps
scalpel
scamp
scratched
seance
segals
sennett
sergeants
sexier
shallowness
sharper
shefali
shep
shipment
shriek
sim
simpleminded
sinclair
singleton
singularly
sinuhe
sirens
skewed
slum
smallville
smattering
snack
snatched
sneering
sobbing
solace
sotnikov
southwest
sparked
spills
spiritually
spraying
squirming
stagnant
starr
steering
stevenson
stifling
strangled
streetcar
streetwise
stresses
stripping
styled
subspecies
suffocating
sugary
summation
superficially
superimposed
surgical
susannah
sweater
sweetly
swindle
syndicate
taboos
taliban
tanzania
tee
tentacles
tenth
threedimensional
tia
tiff
tint
tintin
toad
togar
tomas
tongues
toolbox
torrance
toughguy
transsexual
transylvania
treaty
treks
trelkovsky
tremors
trench
tucci
tug
tumble
tyrannical
ufos
ulrich
unbridled
unconvincingly
underage
undying
unfathomable
unhappily
uninitiated
unlock
unmissable
unmistakably
urich
urine
utters
vivah
vogue
vying
wacko
walkens
wendt
whines
whitney
wolfgang
woodrow
woos
wordless
workplace
wrist
yelled
yuen
yukon
yzma
zanuck
zgrade
##14
##45
##aat
##acted
##acts
##ades
##ake
##akers
##aks
##ality
##arding
##ather
##ato
##aves
##beck
##berger
##bergs
##beth
##bis
##bor
##chner
##cken
##color
##constructed
##control
##cracker
##craft
##cribed
##ctive
##cts
##culate
##cuts
##dation
##del
##dis
##documentary
##drunk
##due
##dvd
##ead
##edge
##educated
##ends
##ety
##evil
##fa
##falls
##feature
##forgotten
##fort
##gas
##gates
##gence
##ggy
##gic
##gins
##half
##happy
##hn
##hoe
##hol
##ially
##icing
##iful
##ill
##illa
##ilm
##ime
##inson
##ique
##italian
##ivation
##iving
##jan
##jun
##key
##lage
##lain
##lasher
##lated
##lav
##lding
##legged
##lem
##lery
##log
##maid
##mc
##monster
##mph
##musical
##nas
##nging
##ocus
##oes
##ont
##orable
##ott
##park
##peed
##pical
##pies
##pity
##rer
##rette
##rly
##rm
##rod
##romantic
##shed
##stars
##suit
##take
##tay
##tel
##test
##tizing
##tree
##tter
##tting
##uary
##ube
##uish
##urance
##usion
##vier
##ware
##wave
##why
##won
##would
##www
##yan
##yers
##zle
##zone
140
1920
1926
66
abba
abhorrent
abigail
abuses
abysmally
accomplishments
adjusting
adolescence
advises
affinity
afforded
aficionado
afoot
afterschool
agendas
airhead
alma
als
amateurishly
amudha
amulet
ancestor
andres
ankle
annals
announcing
anns
antena
antiestablishment
antique
archetype
argentine
arnolds
arson
artfully
aryan
askey
assailants
assertion
assessment
astor
auction
austere
aweinspiring
babys
balding
bamboo
bancroft
banjo
bard
bargained
barred
barrett
batch
bawdy
beale
beguiling
beijing
bella
beller
benicio
benton
betting
bewildering
biz
blackmailed
blackwood
blithely
bluff
bluray
bolls
borat
borden
bos
boundless
bouts
boxed
boyz
breckinridge
breillat
brokeback
buddys
bukowski
bulletproof
busting
calendar
calhoun
camerons
campiness
cancellation
caribe
carne
carrell
carver
catchphrases
cavern
cds
celtic
channeling
charade
charleston
cheeks
churns
cinderellas
cleef
cluttered
cobbled
coffins
coldness
colombia
colonels
commercially
commissioned
computergenerated
conducts
cone
congrats
conjunction
console
contagious
converse
cooked
cookiecutter
coproduced
costa
coupling
courses
coveted
coy
crate
crescendo
crucifix
crust
crystals
cukor
curator
cussing
cyber
daddys
dahmers
danza
debates
declined
demonicus
diagnosed
dilly
dingo
dipping
dir
disarming
dismayed
dismisses
disorders
divert
dodging
dome
downloaded
draining
drank
drawl
drenched
drooling
dullest
dunk
dynasty
dysfunction
earthy
electra
elegantly
elitist
embody
emphasizes
encountering
endures
entertainers
entice
erasmus
erection
ernesto
escalates
escapees
esteem
evacuated
eventful
exam
excel
excite
expressionless
extinct
extraordinaire
familial
fata
feats
federation
feminism
fez
filmgoers
fischer
fishmen
flats
flattering
flippant
floored
foibles
footnote
forgives
forlorn
forwards
fozzie
frailty
francoise
francos
freakish
freemans
frenzied
freud
fuji
functional
functioning
funerals
funhouse
furst
gabriele
gandalf
gargoyle
garry
garth
gemma
genes
gershwins
goats
goldsworthys
gorgeously
governess
greenhouse
greys
grinds
grosse
growling
guerrero
gunned
halfassed
halfdozen
hallway
hamburger
happenstance
hark
harms
hastily
hauser
haw
headmistress
heady
hess
highlighting
hijacking
hitokiri
hobo
hopalong
hows
hr
hubert
humanistic
humorously
hut
hynkel
hypnotized
hypocrite
idealized
idols
illegitimate
imbecilic
implements
improvements
impulsive
inanimate
indulges
inimitable
injecting
inquisition
intricacies
introductory
inventiveness
isle
israelis
ivey
jackets
jaffe
jargon
jarvis
jeffery
jilted
jimi
johanna
jonas
julies
karisma
keach
kennedys
kershner
kier
kiki
kleenex
knowles
kosugi
kylie
landmarks
lanes
langella
larson
latex
lea
leak
leaping
lenny
leone
likelihood
limelight
linden
louder
lucys
lugosis
lulls
lunatics
lynne
lyon
macarthurs
maddening
maher
malick
manifestation
mantis
marcy
mathilda
mccormack
mcgovern
md
merge
microfilm
mid80s
midwest
miklos
militia
millard
mink
minorities
minors
mirrored
miseenscene
mistreated
mistrust
misuse
misused
mocks
moralizing
motherdaughter
mounting
multiplayer
multiply
muniz
mustang
narcissism
narrowly
nazism
nefer
neville
nicknamed
nimoy
noltes
nominal
nonprofessional
nsa
obnoxiously
offender
oneal
oozing
oshea
outburst
overview
overworked
oy
paddy
pained
panning
panorama
parading
paradiso
parodied
particles
partisans
pas
patron
pausing
pedestal
perch
perilous
personified
personifies
peta
pharaoh
physicality
pimps
pinkett
pinky
playfully
pledge
plotholes
plunged
po
poes
polarisdib
poorer
porgy
possessions
possessive
ppl
prayers
prejudiced
privy
prix
prompts
protestant
provocation
pushy
quarry
quitting
qv
raccoon
rackham
ragtag
raisuli
raja
rancher
raptors
raucous
readings
recalling
reconstruction
recycling
rediscovered
reduces
reducing
reedited
regency
registers
rehashed
reindeer
reinforce
rejecting
relatable
reluctance
remembrance
repartee
repercussions
reprehensible
reproduce
reproduction
responded
reworked
ridgemont
rightful
rockwell
roddenberry
rode
roegs
rollin
romanticized
romantics
rosalind
rosenstrasse
rutger
sabotaged
sadist
saintly
sandras
satires
saul
saxon
sayles
schoolboy
scifihorror
scotty
scraping
scratches
scratchy
sctv
seaman
searing
secretive
selfindulgence
selfproclaimed
selfreferential
selfrighteous
serbs
settlers
sheens
sheeta
shitty
shone
shovel
showers
shuts
shutting
skeptic
skunk
skywalker
slay
sleek
slicker
sloth
smoky
smuggled
smut
snot
snotty
soapy
soar
sobering
sociological
songwriter
spanning
spans
speakeasy
sphinx
spouts
staid
standalone
stank
staples
starlets
starz
stealer
stressful
strides
stripperella
structurally
strutting
stylised
substituted
suitors
sullavan
surplus
suzumiya
swayed
swiftly
swims
tackled
taiwanese
tamblyn
targeting
tarnished
tearjerking
tediously
teleplay
tenor
tetsuo
thanked
thee
theoretical
theoretically
thorpe
ticking
tickled
timer
tivo
tolerated
torches
torso
toxie
trades
transfers
transportation
tread
triers
tripper
trough
truer
tvseries
twisty
twit
twohour
unassuming
unbeatable
uncaring
underestimated
undergoes
underlines
undertone
unfriendly
universals
unleash
unobtrusive
unrealistically
unsavory
unscary
unsurpassed
upandcoming
uproarious
vasey
vaults
verses
viciously
vie
vignette
vinny
voicing
wagners
wallow
wallpaper
waning
weber
weirder
whoville
willies
winfield
woodard
wreaking
wrecking
xbox
yahoo
yawning
yer
yorkers
##17
##25
##60
##ading
##ael
##aka
##animated
##aper
##around
##atable
##awa
##ays
##balanced
##brother
##camp
##ceived
##chool
##controlled
##crap
##credits
##cross
##deep
##dest
##dicated
##did
##dit
##dles
##erence
##essed
##eurs
##eyes
##fe
##flight
##french
##games
##gee
##ggie
##gled
##gnant
##goes
##graph
##hadow
##hara
##hart
##haw
##hungry
##iac
##idal
##ifiable
##ility
##interest
##isha
##ishi
##iss
##itating
##jane
##ju
##kids
##laid
##lap
##lation
##lc
##licing
##lified
##liss
##lities
##louch
##mat
##max
##mical
##mine
##minutes
##mis
##mobile
##mura
##music
##nal
##nate
##nces
##nier
##nish
##nob
##oise
##oll
##omb
##ones
##oper
##oping
##ored
##oring
##outs
##ove
##par
##poken
##polis
##populated
##production
##real
##rov
##san
##screen
##ser
##sity
##sta
##tails
##tale
##tas
##tep
##tered
##tles
##tom
##unce
##unk
##uns
##unted
##vably
##vating
##via
##violent
##wards
##wells
##wit
##wolf
##xie
##xy
##yahoo
##yed
##zers
1015
117
1915
2010
52
600
74
800
aaliyah
abel
aching
adjusted
adopting
adores
adventurer
aftertaste
ageold
agreeable
ahole
airwolf
aisle
alastair
alfonso
allegra
alleys
ambush
ambushed
anjelica
annemarie
aristocrats
arousing
assante
assassinations
atrociously
avalanche
babble
backstabbing
baffles
barbershop
barr
barrie
baywatch
binge
biopics
biscuit
blackmailing
blackwater
blanche
blossoms
boldly
bombers
boringly
borne
brag
brandauer
breadth
breeding
breslin
broom
bumble
burdened
burgade
burgundy
businesses
butthead
camper
canine
carved
catchphrase
categorize
celebs
centred
cereal
chanting
chapel
chauffeur
cheryl
chimps
chinas
christs
cited
claudette
clifton
clinging
closeness
coda
codes
collaborators
colton
coltrane
combatants
comedys
commended
commitments
compellingly
completion
completist
complicating
comprises
condemning
conditioned
conman
considerations
consolation
constrained
consume
contacted
contemplation
contention
contractor
copout
cornell
cornfield
corporal
correction
countdown
courtship
coverup
cowgirls
crabs
crashers
crawls
creditable
creepier
crocodiles
culturally
cupboard
cursory
curve
cylinder
dali
dans
danson
daughterinlaw
deceive
deem
deepa
defended
degraded
degrades
delpy
dementia
democrats
dent
dentists
departs
descendant
desmond
dessert
detachment
deteriorated
detractors
devgan
deviant
diatribe
dilapidated
diminutive
diplomatic
disapproving
dislikes
dissolves
docks
dolphins
dora
doting
dragonball
drastic
drones
drummond
durning
duvalls
dwelling
dystopian
earthly
echoing
edmond
elam
elena
elia
embittered
eminent
enabled
encompasses
engineers
englands
enhancing
epitomized
erupts
esteemed
excop
exits
expelled
expendable
explorers
exuberance
faints
faithfulness
fared
faultless
feedback
feldman
feline
fessenden
figment
fistfight
flaccid
formulas
fps
fraulein
frivolous
frown
futurama
gainsbourg
gammera
garofalo
gasoline
gaunt
gears
gel
geneva
gervais
gleeful
godmother
gosford
graders
grifters
gripes
groaning
grubby
gutsy
gymkata
hag
hahaha
hammond
handcuffed
handyman
hanged
hangover
hanzo
harbors
hardedged
headmaster
hearst
hee
heh
heifetz
heighten
heigl
helluva
henstridge
hickman
hijacked
himesh
homophobia
horde
horrigan
hugging
hurst
husky
ichi
illinois
illustrious
imitated
impeccably
impregnated
indicator
indigenous
ines
inexcusable
infatuation
ingenue
inserting
interacted
interpersonal
interrogator
intersect
intimately
investigative
jab
jabs
jamaican
janeway
janine
jimmys
jonah
joness
journalistic
jox
joyces
joyful
juanita
judgmental
julien
justifying
kairo
kara
karin
keener
kettle
kickass
kidmans
konkona
kronos
kurtzs
laconic
layout
leftover
leftovers
leia
lesley
lh
liaison
likability
lilys
limbo
lisas
lizards
loathed
locking
lommel
loveless
luise
lukes
lures
lusty
macmahon
madam
malik
maltese
mamie
marguerite
marian
marking
marquee
martinez
marv
mascot
masons
maud
mazursky
meaner
medals
melvilles
methodical
metropolitan
midgets
miguel
miramax
misconception
misdirection
misgivings
missteps
miya
monitors
montalban
moose
morgans
mortality
motorama
moviemakers
multiplex
muse
musings
mussolini
mvp
napier
narrate
nasal
nastassja
negotiate
negro
nihilism
nile
nilsson
nineteen
ninotchka
nobel
nobleman
obey
obscured
occupies
odious
oj
oneonone
onetime
onward
ordinarily
orwell
outstandingly
outwardly
overdramatic
overdue
pakeezah
palermo
pantomime
paperhouse
pappas
paradox
parlor
patches
pavement
payperview
pedophile
peep
penniless
pennsylvania
pension
pentagon
penthouse
penultimate
perk
perpetrators
petersen
phoned
photographing
pier
pinocchio
pita
pitted
platinum
plucked
plunkett
poles
ponyos
poppa
postal
potente
pouting
practiced
preconceptions
prelude
presently
prestige
primetime
proceeding
profitable
prohibition
prolife
promiscuity
prosecution
prosper
protege
provo
prowl
puking
pup
puppies
purportedly
pym
pythons
railly
ramifications
rani
rapidfire
reactionary
realist
rebuild
recluse
redundancy
reeds
regional
regions
regrettable
rehearsing
reilly
rekindle
representatives
requested
resolving
resonate
responding
restores
restoring
retaining
reunites
revisiting
reviving
richter
ringer
ritters
roadside
rocknroll
roebuck
roster
rubbing
rue
rukhs
safari
saif
sakall
saks
salacious
salem
sanctimonious
sanctuary
santos
sasha
saturn
savings
saxophone
scales
scalise
scandinavian
schaech
sculptor
seams
searchers
seberg
secular
selfcontained
selfimportant
selfless
semester
serling
sermon
seventeen
sewn
shamefully
shat
shatter
shaved
sheds
sheppard
sherwood
shootemup
shooters
shortest
showbiz
sicilian
simpleton
sirks
slade
smoked
smuggle
snarling
sniffing
snoozer
socialism
soderberghs
solicitor
soontobe
soothing
sophomore
sparkles
specialists
specifics
splashes
spontaneously
squares
stanton
startled
starved
steely
stench
stephan
stepsisters
sternberg
stigma
stinky
strategic
strengthen
structures
stuffing
stylishly
subculture
substantially
sullivans
sundry
supplying
surfaces
suv
swordfish
syrup
taller
tantrums
tassi
tawdry
teaser
teases
terri
theatrics
thirds
throes
thunderstorm
tigers
tissues
toaster
tomboy
tombstone
totoro
touchy
trader
transfered
tripod
trojan
trooper
truest
tumultuous
tweed
twentysomethings
typed
unemotional
unemployment
unholy
unimaginable
unions
unneeded
unraveling
unused
unwelcome
uprising
upsets
valued
variant
veiled
venoms
vicky
victorious
victors
villainy
virtuous
volcanic
wages
wallaces
warts
watering
weepy
wellpaced
wendys
whirlwind
whispers
whitman
whiz
wildes
wilford
woodland
workmanlike
wring
yu
zest
ziyi
##07
##92
##94
##aa
##aaz
##aked
##ali
##ante
##ason
##ature
##aved
##bashing
##best
##better
##billed
##blooded
##bodied
##bright
##building
##cale
##cally
##chan
##chard
##chilling
##cinema
##colored
##covered
##crosses
##culated
##cultural
##dians
##doctor
##dour
##eal
##eck
##elina
##elled
##elman
##ending
##ensive
##erling
##eta
##ettes
##eur
##fair
##four
##friends
##gged
##grating
##guchi
##having
##held
##hero
##hey
##hon
##hum
##ican
##icks
##ienne
##iens
##imo
##inelli
##infested
##intelligent
##ird
##ires
##iros
##itate
##itative
##itude
##judged
##kan
##kee
##kel
##kh
##killers
##last
##lat
##lberg
##lby
##lene
##letter
##llan
##lor
##lp
##lva
##lys
##mart
##maybe
##mber
##member
##mentioned
##mination
##mir
##mous
##nazi
##nberg
##nds
##nking
##nky
##nor
##nous
##obsessed
##oids
##osa
##osh
##osing
##oto
##pc
##placed
##pointed
##points
##pop
##ppy
##pted
##ptic
##quential
##racking
##rand
##rce
##reality
##religious
##resh
##ression
##riate
##rily
##rings
##rish
##ritus
##rix
##robert
##rouch
##rth
##rton
##rupt
##rus
##science
##sexual
##sign
##sized
##sk
##skinned
##sted
##tastic
##tely
##thought
##timed
##turned
##ually
##uated
##ughs
##ulations
##umping
##urge
##usa
##usly
##uspense
##vian
##western
##winner
##winning
##witted
##works
##xs
##yama
##years
##zai
##zman
##zu
10yearold
14yearold
1890s
1913
1925
69
71
851
abrasive
accentuate
acquit
acre
adama
adhere
adoration
adventurers
advertise
aesthetics
afterall
ageing
agonizingly
alarms
alexanders
alfre
anaconda
anamorphic
anastasia
anguished
anthologies
antwerp
aplenty
apologise
appliances
applicable
archetypes
ashore
assert
atoz
attained
attentive
attracting
auteurs
avenging
avp
baer
bahrani
balk
balloons
bambi
barricade
bartleby
bathe
bathsheba
batwoman
beatings
beckett
beheading
belongings
bereft
berkowitz
besson
bestknown
bestseller
bewilderment
bhorror
bigname
bigscreen
bilko
billionaire
bipolar
blackface
blakes
blaring
blasphemous
bloodsuckers
bod
bohringer
bona
bouncy
bradbury
bradburys
branches
brewing
bribe
brigham
brisson
brodie
brolin
brood
bucharest
buggy
bunnies
burglar
burma
buttgereit
bypass
caleb
callow
cameramen
cancels
caps
captions
captivate
carlin
carney
carr
cashier
cavorting
ceased
celie
centering
champlain
characterisations
charmer
cheney
chiefly
chiefs
chikatilo
chillers
chomsky
chump
chunky
cimarron
civilised
clap
clarks
classification
clavier
clicks
climbed
clocking
clout
coco
coeds
cohens
coldhearted
coles
colonialism
columbos
compiled
compromising
conceptual
confessed
confessional
conspicuous
consumers
contemplative
contradicts
controller
conventionally
convertible
convictions
cookies
cooperate
corinne
corleone
cosgrove
coughing
credence
credulity
creepshow
crp
curses
cynics
dames
daunting
deadbeat
dearest
deathly
debauchery
defends
deficiencies
delicately
delved
denizens
depended
depressive
dereks
derision
dermot
descendants
desensitized
despises
deter
deterioration
devise
devotees
devouring
dey
dickey
dictators
diggers
dillons
diminishes
dis
disclosed
discreet
disgraced
disheveled
disorienting
disposed
distinguishes
distinguishing
divides
dodger
dooley
doubled
ds9
dujardin
duplicate
eagles
earrings
eckhart
editorial
eds
eggert
egon
elbow
elders
eligible
emote
emphasizing
empress
encouragement
endorse
enforced
entrails
essayed
estelle
eurotrash
evaluate
exaggerate
examining
exceed
extremist
fakes
famine
farina
faris
faust
fearsome
fella
fences
feresten
feudal
fide
fixation
flicker
floundering
flourish
footlight
forcibly
forensics
forerunner
formation
founder
foxxs
fran
francesco
freeing
freezes
freshly
fricker
frodo
frustrate
frying
fuels
fullscreen
funloving
furlong
fusion
fussy
fword
gallows
gasping
gauge
gedren
geezer
gemser
genocide
gialli
gilliams
gimme
glows
godards
goebbels
gonzalez
goodwill
goosebumps
goriest
grahams
grangers
grate
gratification
greenaway
greets
grimm
groans
groom
groomed
grudgingly
gruesomely
guardians
gutwrenching
gwen
gymnastics
hagar
hah
hain
hairdresser
hamiltons
hansen
happiest
happygolucky
harbour
hardearned
harding
hatcher
hazard
haze
healy
heaped
heartache
heflin
helens
helper
henri
herschel
hg
histrionic
hogg
hogwash
honky
hoppers
howl
hurley
hussey
illuminate
illustrating
illustration
imitates
impacted
implanted
implicit
impossibility
impressionist
inappropriately
incorporating
indescribably
indias
individuality
inevitability
infinity
inhumane
initiative
inserts
intergalactic
interrupt
interrupts
intrinsic
intrinsically
introspection
invalid
invents
iphigenia
iswas
ito
jarman
jeanmarc
jello
jelly
jennifers
jonathon
juxtaposed
kaas
kar
karishma
kat
katt
ke
kei
ki
kidnapper
kingpin
kitschy
kmart
koresh
lace
lackawanna
landowner
lasers
latent
laurels
laziness
leatherface
leaud
lectures
legged
legitimately
lending
lennons
levine
lewiss
lincolns
liverpool
loaned
lordi
lorelei
louisa
loveinterest
lowell
lucien
macmurray
mafioso
malefique
mallory
maman
mancuso
maneuver
mantra
mara
marin
markov
masala
massacres
materialistic
mcavoy
mcburney
mccabe
mcconaughey
mediums
mehta
mesmerising
migration
milton
mindlessly
mindy
mishap
mitchells
moans
modelling
mongolian
montgomerys
montrose
moonwalker
morphed
mortimer
muddle
mushy
na
nancys
nanette
nauseum
nelsons
neorealist
nepotism
nestor
nevermind
newbie
nic
nicholsons
nieces
nightly
nighy
nobodies
nominate
norwegians
numbingly
objectives
obsessions
oddities
ollies
omalley
ominously
omnipresent
onslaught
opulent
orphans
oss
outback
outcasts
outdid
outdoes
outdone
outgoing
outofcontrol
outrun
overheard
overload
pablo
pagan
panahi
paquin
paradigm
parasite
parasites
pare
parrish
patchwork
patronising
paymer
pazu
peckinpah
peet
pemberton
pencil
perks
perpetuate
persecuted
pertinent
petrol
piling
pillar
placid
platonic
playstation
pleaser
pleasingly
plunging
poised
posture
prayed
preconceived
predatory
probe
procedures
prodigy
proficient
profundity
prominence
promisingly
pronunciation
properties
prospects
protects
prots
prudish
publishers
pullman
pulsating
pumping
punishing
purest
purist
pussy
quarrel
quintet
rabies
rajkumar
rash
ravenous
recital
recites
recomend
recommendable
redemptive
redo
redux
regiment
relieve
reputations
reputed
resolves
respectability
respite
restroom
rhetoric
rift
rik
ritas
rites
robberies
romancing
rommel
romulan
rooftop
rotation
rotj
rufus
rybak
sabretooth
sallys
samson
sandwiches
sao
sayonara
schoolgirl
schumachers
scrape
scroll
secrecy
securing
segues
selfaware
selfrespect
senate
senators
sensed
sh
shampoo
shaping
sharif
shipping
shipwrecked
shoves
showy
shrug
shrunk
silvia
simultaneous
slacker
slammed
slashed
slaying
sleepwalks
slender
slices
slowing
smacked
smarts
smelly
sneaky
snicker
snipers
snooty
sociopathic
soften
softporn
sonia
sookie
soultaker
spaceballs
spaced
specialeffects
spook
spurts
staggeringly
standin
starstudded
starvation
staunch
steep
steves
stigmata
stockholm
stormare
strangling
stryker
stump
stupor
submissive
succinctly
summon
supermans
swap
swordsman
tactical
taejoo
taffy
tags
takeover
talisman
tasted
tattoos
telekinetic
temperament
templar
testosterone
textures
thered
thinkers
threshold
tibet
tier
tightening
tiniest
tinted
tommys
toon
torturous
toughness
tourdeforce
tourneur
tracker
transcendental
transporting
transports
treachery
treasury
treatments
trepidation
triggered
tristan
tromas
trustworthy
tulip
tumbling
twain
twitch
ummm
umpteenth
unabashed
unbiased
uncensored
underplayed
undertaking
undeserving
unflattering
unger
unidentified
uninterrupted
unmatched
unmitigated
unpleasantness
unrelentingly
unsatisfactory
unsuitable
upright
utilizes
verite
vessels
vicariously
vidal
vivacious
voluptuous
vow
waldo
walshs
warmly
watery
webs
webster
weighed
welcomes
wellcast
westerner
whalley
willow
wolfs
wordy
workshop
worships
wrights
wuthering
wynn
yan
yesterdays
yves
zahn
zeal
zooming
##04
##06
##100
##13
##90s
##abilities
##ages
##americans
##aring
##ault
##aver
##aways
##awful
##bald
##bank
##bart
##bas
##baum
##bbs
##blue
##bones
##brain
##breasted
##brian
##bridge
##caliber
##care
##cer
##chase
##chu
##cifi
##cine
##cket
##comedies
##comic
##count
##cribe
##cripted
##cue
##cult
##cusing
##dable
##dden
##dens
##dly
##doo
##dressed
##dson
##duty
##ec
##edged
##eding
##edo
##ela
##ells
##ena
##eo
##erative
##erman
##erty
##erved
##esce
##escent
##eted
##ews
##eye
##fect
##folk
##founded
##full
##fx
##gra
##hai
##hest
##hips
##hman
##hoots
##icon
##igh
##iki
##ilating
##inis
##int
##interesting
##ioned
##itated
##ivate
##justed
##kies
##known
##lander
##liers
##logue
##maine
##mania
##maniac
##marks
##matched
##mia
##mission
##mme
##mmy
##mr
##nar
##nced
##nders
##neck
##nial
##nuckle
##ocks
##ody
##ography
##once
##ony
##oooo
##ost
##ote
##oth
##oting
##ovic
##particularly
##passing
##pated
##pelled
##pen
##pensating
##pered
##picious
##pieces
##pist
##political
##poor
##pp
##qualified
##quent
##quest
##quist
##rably
##rage
##rance
##rates
##rations
##rby
##rds
##rey
##rez
##ricious
##rill
##rized
##road
##rone
##rr
##rring
##see
##seeking
##shing
##side
##sms
##solution
##sses
##ssing
##sters
##storm
##story
##tated
##teins
##tell
##tence
##theres
##tical
##tick
##tiest
##truct
##tted
##uity
##ull
##ulted
##ump
##urably
##urate
##urer
##uts
##vd
##vet
##wait
##wear
##wearing
##wire
##wl
##woods
1917
2s
91
aag
abnormal
aborigine
abounds
accommodate
accounted
acerbic
ackroyd
acquits
acrobatic
adjectives
adrift
advancing
africanamericans
afternoons
aggressively
airliner
alberto
alcatraz
aldo
alienating
alisons
amen
amirs
amnesty
amsterdam
analyse
ancestry
antiheroes
antiquated
antz
aparna
apologizing
architects
arouse
arrests
arse
asap
assailant
assemble
attest
auditions
auditorium
automobile
awed
awesomeness
axed
badguy
baio
bakula
balsam
bankruptcy
baths
batmobile
battalion
beads
bellows
benji
bentley
billboard
billions
birch
bitches
blackout
blackwhite
blogspot
bloodletting
bloodrayne
blossomed
blossoming
bluebeards
boeing
bono
bowser
branded
braun
bravado
breakdancing
breakin
brevity
brody
brotherly
btch
bueller
buffoons
bugged
buka
bundy
buries
cache
cackling
cactus
capitol
carells
carface
carlisle
carousel
carts
casualty
cate
chameleon
chapman
chappelle
chasers
chatty
cheapie
cherie
chile
chilean
cinematographers
circulation
closets
coe
coed
coincidental
colm
colorized
coloured
comforts
commenters
commercialism
commies
compact
complements
composing
comprehensible
condemnation
condom
confessing
conjured
connoisseur
conquering
conscientious
consensus
conspirators
conspire
constipated
consuming
container
contenders
conversing
coolly
coproducer
coronation
costas
costners
crackerjack
crawfords
criticise
critiques
cropped
cunningly
curl
cusak
cushings
cybill
daredevil
darius
darr
daydream
deconstruct
decorative
definetly
dehavilland
delectable
delmar
denholm
deployed
derailed
descriptive
deteriorates
determines
detestable
devotee
diablo
differing
diminishing
dint
discouraged
disguising
dismembered
dispatches
dissection
ditsy
djs
dmytryk
dogged
doggie
doktor
dolphin
dominance
doodle
doozy
dots
dragnet
duality
dugan
duggan
dumbfounded
dunes
duplicitous
dutiful
eaton
ebenezer
edisons
effected
ek
elf
elicits
emery
encore
endearingly
endor
ensured
essex
estates
etched
ethnicity
everpresent
exclaims
executes
executioner
exhaustion
expands
explorer
eyelids
eyesight
fabio
fabulously
facet
fad
fagin
falco
falks
fane
fangoria
fassbinders
fasttalking
favorably
federico
feminists
ferguson
ferrari
fertile
fickle
fishers
flatly
floods
floozy
floppy
flounder
flurry
fong
foolishness
forsyth
freds
frustratingly
fulfills
fumbling
futures
gables
gaelic
galaxina
gallagher
gallons
gambit
gambon
garrison
garys
gassman
gazing
gestapo
ghoul
gin
gis
globalization
godfrey
goofball
goonies
gough
grande
grape
grasping
grates
greengrass
greenlighted
greenwood
greer
grieve
grizzly
groucho
grunt
guetary
gulch
gunfighter
gunning
gunsmoke
guntoting
hackers
handcuffs
hanger
hardnosed
harem
harrow
hater
hawaiian
hawes
headon
heals
hellbent
hellman
hera
heretic
hiatus
hodder
honed
honourable
hoopers
horatio
horizons
hosting
hotter
hovering
hues
humankind
hutz
hyams
idiosyncrasies
imbeciles
imbued
improbably
inaccuracy
incisive
inconvenient
incredulous
indescribable
infantry
inflated
infomercials
informing
inhabiting
ink
inkling
insignificance
insomniac
insomniacs
instructors
intertwining
intoxicated
invoke
irksome
irrespective
jabba
jaime
jakes
janeiro
janos
jasper
jeanpaul
jhorror
jimmie
joaquin
jud
jupiter
karma
katrina
kaylee
keeley
kelso
kern
khanna
khouris
kickboxing
kitten
krause
ku
labeouf
laine
laird
lament
langley
lawson
leah
lelia
lesserknown
levins
libido
librarians
libre
licking
lightening
lingo
locket
longterm
looser
lorelai
lorenz
lorraine
lucinda
luger
lumbering
lusting
macchio
macgregor
magnetism
magnus
mahatma
mahler
maligned
managers
manchild
mandarin
maneating
manly
mansions
marble
marceau
marge
margot
marker
marooned
martys
massage
mathematics
mccools
mccoys
mccrae
mcgowan
mckay
med
mellow
menzies
meters
milking
milquetoast
milverton
minding
miscarriage
misogynist
misstep
mobs
molestation
momentary
monochrome
monolith
morbius
morphing
mortally
mortgage
mos
motorcycles
mousy
mugs
mulligan
multidimensional
mumble
mumbojumbo
musclebound
mythos
nailbiting
nami
napalm
nastiest
naysayers
nazario
neve
newmans
nicest
nicks
nightbeast
niros
nitpicking
noahs
nonchalant
notches
notting
oftentimes
omission
onboard
oneofakind
ooze
ophelia
opts
org
organisation
orton
overgrown
overseeing
overstated
paige
pandoras
paraphrasing
parodying
partridge
pasteur
patterned
patti
peach
pedantic
peddler
peel
peering
perceives
perish
perversely
pest
petiot
petrified
pharaohs
phenix
philandering
phillipines
philly
picard
pitching
pleas
plotless
plunge
poets
pointy
pollak
porky
poseidon
prays
precedes
predicaments
prematurely
preoccupied
prerequisite
prescient
presentday
prewar
priorities
procedural
processes
prochnow
programmed
prompting
prophecies
protee
qin
quartier
quixote
quota
racks
radu
rahman
realisation
recruitment
reefer
reich
reinforces
repay
replays
reptiles
resent
resignation
resumes
reuse
rhine
rhythmic
roberta
robins
robinsons
rochesters
rolle
rollicking
roma
romy
roofs
rotating
rothrock
royston
rs
runners
runway
saber
sabers
saddle
sakes
sanitized
sarsgaard
savor
scarf
scatman
scholar
schoolteacher
scraped
screamers
sculpture
selfdiscovery
selina
semen
separating
sept
settlement
shangrila
shapeshifting
sharpe
shekhar
shen
sheryl
shiban
shifted
shifty
shin
showings
shrine
shrinks
si
sica
sideshow
siegfried
sisterinlaw
sita
sizzling
skates
skeletor
slamming
sleepwalking
slipper
slop
slots
sniff
snooping
snuck
soggy
sondheim
sorted
sosukes
spew
spinoffs
spiraling
sponsors
spoorloos
sprayed
sprinkling
spunk
stability
stag
stained
stalkers
stall
stamped
stapleton
startlingly
stead
steers
stephane
stimulate
stomp
straining
strand
strangler
strathairn
straws
strayer
stubby
stuffs
styling
subconsciously
subterfuge
suckered
suckers
sumi
summoned
superficiality
supervision
survey
sustains
swallowing
swapping
sweating
swill
swimmer
swordplay
sympathetically
synonymous
syriana
systematically
tact
tagging
taping
tatiana
teamwork
tentative
tents
termed
terrors
thames
theological
threeway
thrive
thwart
ticks
titillating
todds
todesking
tortuous
tours
trailing
trampled
traumas
trejo
tribulation
trim
trois
tsai
turpin
twinkle
uber
unaffected
uncharted
uncontrollably
underscored
underscores
underway
unengaging
ungodly
ungrateful
unisol
unrestrained
unsentimental
upheaval
urgent
urging
vacationing
vegetarian
venerable
venturing
vermont
videotaped
vindicator
violating
vip
visiteurs
vosloo
wackiness
walton
warmhearted
warring
waterston
websites
wellbeing
wellworn
wilcox
wincott
winona
winsome
witching
witted
woodbury
wrapup
wrinkled
yadav
yahoos
yang
yeung
yoda
yokozuna
youssef
yuk
zasu
zenia
zimmer
zuniga
##03
##30s
##39
##79
##ady
##aine
##along
##alow
##also
##ased
##aste
##ately
##atti
##band
##basement
##beau
##before
##believe
##ben
##bering
##bourne
##bush
##cade
##cco
##challenged
##characters
##chet
##choreographed
##cible
##claimed
##classic
##coats
##complicated
##cover
##crazy
##cre
##cw
##dall
##dark
##dging
##dia
##dine
##does
##ef
##ele
##elf
##eller
##ellini
##ended
##ene
##english
##ense
##essing
##eting
##factor
##familiar
##fascist
##fast
##fers
##few
##ffrey
##fide
##filling
##fitting
##flies
##fords
##formation
##forth
##gay
##genre
##gery
##ggers
##gher
##gish
##gly
##gory
##hale
##haped
##hers
##holding
##holes
##hor
##hrs
##huh
##hunt
##iable
##iam
##iano
##iao
##iates
##iator
##ices
##ician
##icos
##ict
##ided
##ider
##iler
##illac
##imus
##inda
##induced
##ior
##iran
##iv
##jean
##kens
##kus
##lder
##liance
##lich
##lied
##lished
##lized
##loss
##loud
##lton
##match
##mbles
##members
##merican
##metal
##mite
##mix
##mpt
##nch
##ndi
##nding
##nity
##nka
##nut
##obvious
##oire
##oji
##oked
##omized
##opher
##oss
##oted
##oul
##paper
##person
##pine
##plicity
##porn
##ppers
##presented
##punk
##quez
##quiring
##rative
##rators
##rde
##rell
##riety
##rissa
##ruck
##rung
##school
##semite
##shan
##sia
##sitive
##sley
##smoking
##ssa
##sse
##ssy
##tall
##three
##thy
##tigated
##tight
##tiness
##titude
##tize
##tment
##too
##tories
##tough
##toy
##trash
##tre
##trom
##true
##tton
##turing
##twist
##uald
##uana
##ubbed
##ughan
##ugs
##uited
##uka
##unch
##uri
##urie
##urus
##urvy
##varro
##vate
##verage
##verted
##viewing
##vising
##vyn
##week
##while
##without
##wling
##yce
##yyy
##zzled
105
108
10s
15th
15yearold
2040
41
58
aback
abbie
abby
abcs
abhay
accentuated
accumulated
actioncomedy
adage
addictions
adjective
adkins
adlibbed
adoring
advert
affordable
aha
ai
airwaves
aisles
allegiance
alliances
alters
alumni
ambiguities
americanized
amiss
amorous
amplified
analyst
anarchy
anew
angelique
animator
antarctica
anthonys
anu
apache
arising
arjun
artifact
artifice
ascertain
aspiration
assertive
assignments
assisting
assy
astral
astray
athleticism
atmospherics
availability
avatar
aw
awakes
axes
backtoback
bailed
bane
bangladesh
banished
basing
bassett
batmans
batteries
beatle
beattys
beck
bedrooms
beggar
beleaguered
belting
benign
bernadette
berryman
berth
bessie
bey
biggs
biographies
bisset
bitching
blackadder
blanc
blasphemy
bleakness
blitz
blokes
bloodied
blunder
bogota
bombshells
bont
borchardt
bordered
borgnine
bosnia
bossy
bottomline
boulder
bracco
brainwashing
breathed
brewer
brighton
britton
brutus
bubblegum
buffet
bulky
burakov
bureaucrat
burly
burman
burnett
burstyn
cafeteria
cains
callers
campaigns
candace
capability
caption
captivity
carriers
cartwright
carving
cashing
castellitto
catalan
cathedral
caulfield
caustic
centurys
cesspool
chabrols
chainsmoking
chalkboard
chaser
chayefsky
chelsea
cheque
chords
chores
clare
clutching
coaches
cocoon
cohort
coldly
collectively
coloring
colourless
complication
complicity
compromises
concocts
consecutive
contests
contracted
contradictory
corp
cowardice
cowards
crab
crabbe
crackling
crackpot
crayon
crockett
cromwell
cronenbergs
crossbow
crosscountry
crowes
cruising
crux
cuff
cutie
cutthroat
daesu
dalmations
darned
daulton
davidians
davos
debutante
decked
declining
deco
decorations
degrade
delia
delinquent
dell
denny
departing
depressingly
dept
devine
devos
dianne
dibiase
differentiate
digicorp
dillinger
dion
disciples
disconnect
discourse
diseased
disowned
disposing
disregarding
dissolve
distortions
diverting
dixons
dobbs
doctrine
documentarystyle
dominos
donnas
dor
dorff
dorsey
doubling
doubly
douglass
duckman
duller
dushku
dutta
duval
earnestness
eduardo
efficiency
egregious
eko
elevators
eliminates
elimination
ellie
elmore
ely
empathetic
empathise
endear
endeavour
endorsement
enrico
entrepreneur
envision
ephemeral
epitomizes
esteban
ethic
euros
evenly
everytown
exchanging
exclamation
exhibiting
existentialist
exlover
exodus
expansion
explanatory
expressionistic
extracted
fallacy
fanfare
fastforwarding
fawning
fellowship
fervent
fetisov
ff7
filmand
filmgoing
fingered
firearms
fixes
flares
flipper
flung
flyer
foo
footing
footprints
foreshadows
forged
forlani
formats
franka
frankenheimer
frawley
frees
frigid
fruits
funk
funnily
fuzz
gaffes
gall
gallant
gamblers
gannon
gardenia
garfields
gazes
generosity
gft
ghostbusters
gianni
ginny
gish
giuseppe
giveaway
glide
gnarly
goauld
goines
goldwyn
golly
gooey
gorefest
gormless
gould
grading
grandfathers
grasshoppers
gravel
greener
grimace
grins
grotesquely
grungy
guitars
gunslinger
haka
halfnaked
hallmarks
hammett
handicap
harrelson
harshly
hassle
hauer
hd
headless
headlights
headlong
heavier
heirs
hensons
herrmann
hilda
hinds
histories
hollywoodstyle
homegrown
homestead
homo
hounds
hud
huggins
hulce
humanism
hupperts
hydrogen
hyenas
hypochondriac
hypothesis
iceland
icky
ideologies
idiotically
illegally
imaginatively
immediacy
immortalized
impaired
impassioned
imprisonment
incorrectly
indecipherable
indoors
inexpensive
informant
inki
innermost
innovations
innuendos
insecurity
insider
instill
insultingly
insure
integration
internationally
intertitles
investigated
investing
investors
invigorating
isaacs
isabella
isles
ives
jacko
janeane
jasmine
jerusalem
joeys
joints
jolson
jongchan
josephs
joslyn
juggling
justine
kabul
kai
kangaroo
karloffs
karwais
kidney
kipling
kira
knef
koteas
kralik
kristoffersons
laments
lampooning
lascivious
lash
lassander
latterday
latters
lawrences
lawsuit
lenz
leonards
leveled
lightness
lillith
litter
livingston
lizzy
locally
lofty
loopholes
loosen
lorna
lovett
lowery
lucile
luigi
lumumba
lurches
mabels
machismo
madigan
magicians
makepeace
malcom
manoj
marathi
maries
maryland
mas
masterly
mating
matteroffact
mccann
mchugh
mcnamara
meditative
melange
membership
menaced
mendez
merimee
microphones
midsection
mightily
mime
mina
minelli
mirage
misanthropic
mohawk
motivate
mow
mumbo
mutt
muttering
mystified
naff
narrowminded
neglects
nervously
nichole
nikolai
nimi
nobrainer
nurturing
oakie
oav
objection
objectivity
obscenities
oddest
offenders
offing
offside
oldies
omnibus
onebyone
oooh
operated
operatives
ops
orangutan
osbourne
outlets
outward
outweigh
ovation
overflowing
overpaid
oversight
ozus
pageant
paltry
pampered
pandering
pantoliano
papas
parttime
passe
passionless
passively
patten
pawns
paychecks
peanut
pecks
pepsi
personification
petula
phelps
philosophies
pintilie
platt
poems
pollard
polyester
potion
pragmatic
pratfalls
preached
predates
prep
presenter
preservation
prim
privates
priyadarshan
programmers
promoter
prosaic
prosperity
prozac
pseudointellectual
purdom
pursuits
putain
pyle
quid
racket
ramsay
rascals
raved
raye
receptionist
recipes
recounting
rectify
reds
reenactments
rehabilitation
reissue
reminders
reminisce
rendezvous
rep
replaying
resisted
resonant
resorted
respecting
resultant
retards
retriever
ribbon
riccardo
ricks
riker
risen
ritchies
roadtrip
rockford
rockin
rocque
rollins
romps
rosarios
rosetta
rossiter
rulers
rustic
sade
salon
salvador
sanchez
sanitarium
sanjay
santoshi
sarahs
satisfactorily
scenarist
scent
schoolers
scowling
scrambled
scrambling
screenwriting
scumbags
sector
seize
selecting
selfconsciously
selfconsciousness
selfrespecting
serbia
serenity
seville
sewage
sewers
sham
shear
shellshocked
shepitko
shepitkos
shirleys
shoeshine
sickest
sicko
silverstone
sims
sioux
sipping
skeet
skelton
skinner
skipper
slated
sleepaway
slowest
slowness
slurs
smeared
smithee
smokey
snacks
snatches
snippet
snooze
snoring
sociopolitical
softly
somerset
sonic
sortof
soutendijk
southerner
sparing
sparring
sparrow
spiced
spicy
splashed
splashing
spleen
sponge
spooks
spoonfed
squeezing
squid
steenburgen
sticker
stinger
stolid
stomachs
stormtroopers
strode
strut
stuey
subjecting
succumbed
superintendent
sutton
svend
swimmers
swinton
symbolically
symptoms
syndicated
systematic
tableaux
tamed
tang
tanked
taunts
tbs
telephones
telescope
temporal
tenderly
terminology
terrythomas
testify
tha
therefor
therere
thickens
thiessen
thigh
threes
thrift
throbbing
tiberius
tipped
tolkien
topping
tormenting
tornadoes
toto
tourism
tous
transcendent
translating
transpired
transplants
trashes
truetolife
trumps
tsunami
tu
tucsos
turds
turf
turks
turnoff
tweaked
twelfth
typecasting
tyson
ulterior
umbrella
unavoidable
unconsciously
undertake
undoing
undress
unexplored
unforgiven
unharmed
unmarried
unnaturally
unprepared
unspeakably
untouchables
upfront
upward
upwards
uss
uzi
vartan
verma
vicente
vicki
videodrome
vigorously
vindictive
vinyl
virgil
vladimir
volleyball
voluntarily
voorhees
vowed
wallop
warwick
wasp
waterloo
waterman
wayside
wellproduced
wests
whiff
whispering
wholesale
whopping
widespread
wildeyed
windmill
winfrey
wishful
womb
wongs
wreckage
yall
yearly
yeh
yesteryear
yore
yr
yum
yvonne
zack
zeitgeist
zentropa
##00s
##09
##16
##96
##acity
##adam
##addicted
##agan
##ained
##ais
##ait
##aler
##alle
##alm
##altering
##ancy
##another
##ared
##arity
##athon
##aus
##average
##aws
##backs
##balls
##bei
##bending
##bent
##birth
##bite
##bman
##bolic
##bot
##bride
##brow
##bu
##buddy
##bue
##bys
##cage
##cation
##cension
##cept
##changed
##chewing
##chief
##cie
##ckler
##communist
##core
##cratic
##crazed
##cula
##cular
##cuting
##dant
##dated
##dating
##db
##dder
##ddily
##dimensional
##dollar
##dras
##driver
##ected
##ede
##eded
##eder
##ei
##entertainment
##ential
##eri
##eson
##fans
##fare
##father
##fc
##fell
##fic
##fing
##friend
##german
##gio
##glass
##gment
##got
##gren
##gus
##haled
##hat
##haven
##hell
##hic
##hine
##hoff
##hoom
##hunter
##iality
##iar
##ibur
##iciency
##ield
##iji
##ilation
##illy
##inium
##iser
##itic
##ivism
##izations
##japanese
##joyable
##kas
##kill
##kong
##latter
##lausibly
##lavin
##lessness
##lice
##lighted
##linger
##lises
##lled
##llies
##lons
##lows
##machine
##mail
##male
##material
##metic
##military
##mist
##mmm
##model
##money
##murder
##name
##nary
##nates
##nay
##nin
##norting
##ogy
##omatic
##oops
##organized
##oro
##osition
##otes
##outh
##overs
##ovie
##owner
##pac
##parter
##pation
##peak
##pet
##pherson
##phy
##piring
##pit
##pke
##pods
##ported
##powerful
##quire
##quiry
##raft
##rah
##rain
##rama
##rash
##rasing
##reak
##really
##reck
##recorded
##rection
##redo
##ressive
##ressor
##ride
##ril
##riminate
##rkin
##rks
##rland
##roll
##rolled
##rolling
##rot
##roy
##rping
##rrel
##rson
##rudging
##rue
##rums
##running
##sense
##show
##sman
##soldier
##stick
##ston
##su
##such
##sun
##sville
##tailed
##talented
##tars
##tempered
##terminate
##thats
##thered
##till
##tinted
##tl
##tm
##toned
##tones
##treet
##tress
##ttering
##tude
##tuff
##tures
##udy
##uel
##uge
##ugly
##ulence
##uli
##ums
##una
##unction
##under
##unes
##uras
##urn
##uru
##value
##vere
##vering
##villian
##vised
##walk
##wars
##waving
##wers
##whatever
##wi
##worker
##wyn
##yal
##yi
##yser
##zzles
104
1905
1916
90minute
94
999
abhishek
abortions
abrahams
abridged
accentuates
ache
acquitted
adas
adjustment
ado
afroamerican
aiden
alcoholics
alistair
allot
alternates
amends
anarchic
anarchist
anatomie
anecdotes
angers
anglosaxon
animate
anthropologist
anticlimax
antimatter
anus
apparition
aptitude
arduous
aria
armour
arsonist
asano
aslan
astrid
atari
atheists
attaches
auguste
auteuil
avert
awestruck
babban
backers
backfires
baggy
bail
ballerina
banking
barbet
bassinger
bathhouse
batty
bavas
bebe
belies
bello
bening
benito
berman
bermuda
besieged
besser
bete
bianca
bigots
bijou
binding
bishops
blackmailer
blaze
blinding
blizzard
blurring
blyth
bobbing
boiler
boman
bombings
boozy
bosom
bosworth
boulevard
bounced
bourgeoisie
bourvil
bowers
bowler
bowman
bows
boycott
bradshaw
brainy
breeds
briefcase
briskly
broadcasts
browning
bubbling
burlinson
burts
busts
bystander
bystanders
cabbie
cairo
caligari
canadas
cannonball
cantonese
capably
capped
capras
caravaggio
carelessly
carve
casanova
catcher
caters
cates
catiii
cavalier
cavanaugh
caveat
changeling
chapelle
characterised
charlene
chart
chaste
chastity
chateau
chauvinistic
cheesecake
cheesier
chickflick
chintzy
chou
cite
cj
clancy
clashing
classed
cleo
clicking
climber
cling
clooneys
clovis
clowning
clubbing
coccio
codys
coincide
combinations
comer
comfy
commie
commodity
commune
compatible
compels
competence
complacent
complimentary
complimented
confuses
congregation
conjures
connotations
conservatory
constitutional
consumerism
continental
contrivance
coolidge
copycat
correspondence
corrigan
cortese
costumed
courthouse
coz
crafting
crain
cramer
craves
crazies
crises
crocs
crosscutting
crothers
crucifixion
crudely
cruiser
curt
cuss
cutest
dagmar
dalmatians
dammit
danglard
daninsky
dank
darlene
dart
daves
daviss
dawns
dayglo
daze
dea
deadline
deconstructing
defect
defiance
defied
definitively
defunct
degenerated
degeneres
delair
demo
demolished
demure
deposit
despairing
destroyer
deth
detmers
deviates
dictated
digger
dimitri
ding
disagreement
disappearances
disrupts
dissect
doesn
dogme
doings
dominatrix
donlevy
donnelly
doomsday
dorn
downplayed
drakes
drips
dropdead
drought
dru
drugstore
dueling
dun
duos
duprez
earthquakes
eastman
eberts
ecological
edgeofyourseat
edwardian
egyptians
ekin
elevating
eloquence
eloquently
elude
eludes
emilia
emmas
emory
endearment
enemys
englishspeaking
ennui
entertainingly
environmentalist
epatha
escapade
euripides
evacuation
evangelist
exams
exasperated
exchanged
existentialism
exited
expanding
expenses
expletives
extracts
eyeopening
f16
fab
facetoface
facile
faintly
fallout
fanda
fantasia
farts
fatigue
femininity
fetchit
fidel
filed
fillers
filthiest
findings
fizzles
flabby
flack
flaky
flashed
flounders
fluids
foils
forays
founding
foursome
frequency
fritton
frolics
fullblown
fullers
gaggle
gamely
gauntlet
genders
genial
genitalia
gentlemans
geographical
georgetown
geres
germanys
ghettos
gibbs
gideon
gigi
gingerbread
girlfight
girlie
girlish
git
glam
glancing
godlike
gojoe
gorshin
gosha
grapple
grays
greenlit
greet
grutter
guarantees
gulp
gummer
gunn
gunplay
hackett
halfheartedly
hamburg
hampshire
haphazardly
hardbitten
harks
harried
harvested
hasty
hatches
haul
hauled
havers
hawns
hawthorne
hazardous
headaches
healed
heartthrob
helplessly
hendricks
hendry
henny
herschell
hidehi
highlands
highpitched
highpoint
highquality
hitcher
hodges
hogans
holder
hollys
hormones
horrorfest
horus
humanitys
humanly
humongous
humourless
huntley
hyeon
icicles
ilias
illadvised
illustrations
imbecile
impenetrable
imperium
impetuous
impressionistic
improvisational
impulses
ineptness
inflection
initiated
injections
insincere
insistent
instruction
integrate
interface
interferencia
interfering
intermittent
interpreter
interrupting
intimidated
intricately
introverted
intuitive
irani
ironies
irreversible
ishtar
izo
jacknife
jailed
jawdroppingly
jeffersons
jellyfish
jive
jnr
jodi
johny
jolts
josef
joshs
jour
joyless
judgments
judicial
jurgen
justifiable
karaoke
kath
katsu
kazaam
keifer
kieslowskis
kiran
kirks
klingon
klux
kon
kryptonite
kudrow
kyoto
labyrinthine
lackey
laserdisc
launches
lavished
lawnmower
lbs
lemercier
leprechaun
lessened
lewton
licensed
lieu
lighthouse
lillard
lingered
lingerie
lining
linklater
littlefield
livein
longrunning
loos
lovesick
luna
lynchian
maa
mackenzie
madden
madeup
magda
maids
mainstay
malefemale
malloy
mammy
mancini
mankiewicz
manservant
manslaughter
manufacturing
martinos
massachusetts
massacred
matron
maughams
mayall
mccartney
mckenzie
memoir
menage
merchandise
merlin
merman
meth
michelangelo
microwave
mil
mileage
milian
milla
milligans
millionaires
mined
miniatures
minimalistic
mired
mishimas
modestly
monique
monumentally
moorehead
moreland
morley
mornings
mortals
motivates
movieand
mt
mumbai
munchie
nagasaki
natalia
nationalist
nauseous
necrophilia
neds
neff
neighbourhood
neorealism
nia
nineteenth
nocturnal
nominees
nonfiction
noonan
norms
nosy
nr
nth
nu
nubi
nugget
oasis
oath
oatmeal
oblique
observers
occupying
odysseus
offence
offkilter
ogling
oily
olin
omaha
operetta
oppressors
optical
orient
outlines
overdoes
overprotective
overriding
overture
overwhelms
ozzie
pabst
pancakes
panicked
paperback
parameters
parasitic
partake
partisan
patchy
pathological
payroll
peeing
pegasus
peppard
perched
pervades
petite
petro
phallic
photogenic
picasso
pinch
piscopo
pitchperfect
pj
plank
plateau
playback
plead
plowright
plumber
pods
poignantly
pointe
pooch
porters
portly
potts
praiseworthy
prancing
preaches
premeditated
premium
prepubescent
prequels
prerelease
preschool
preserves
presses
presumes
priss
probability
proclaim
prod
prosthetic
proximity
pryce
psychobabble
psychodrama
pudgy
puff
purchases
purported
qualifications
quantities
quirkiness
rafael
rai
raided
raids
rajinikanth
rake
ramp
rampaging
ranged
rao
rapaport
rationalize
realtor
reanimated
reappears
reassure
reborn
rebuilt
reconnect
reedus
reek
rees
ref
referencing
rehashes
reiterate
rejoice
relativity
relieving
remedy
ren
renoirs
repent
reptilian
rescuers
reshot
resnais
restraining
retreats
reubens
rev
revert
revolutions
rgv
rhea
ribbons
rices
rien
riotous
rivaled
roadhouse
rohmers
rooneys
rotoscoping
rows
royally
royce
ruggero
rumours
rung
ruthlessness
rvd
sadder
samples
santiago
saras
satisfies
schwarzeneggers
scoff
scola
scooter
scot
scots
scrawny
scumbag
sebergs
sec
secretaries
secured
seductress
segregation
selfdefense
sensations
sensing
sensory
servo
setpiece
sexiness
sexo
shambling
sharma
shaves
shea
sheedy
shells
shelved
shintaro
shiver
shohei
shotguns
shrew
shrouded
shun
siamese
sigrid
silhouettes
singled
sinhue
sith
situational
sizable
skagway
skepticism
skins
slippery
sloan
sloppiness
sludge
smiley
smirking
smithereens
smits
smuggler
snatchers
snitchd
snoozefest
sobieski
sociology
sociopaths
solos
spall
spatial
spaz
specializes
sperm
spewed
splashy
spongebob
spoons
spurned
squirrel
stain
stately
statuesque
steroids
stocked
stocks
storyboard
storytellers
streaming
strident
stroud
studi
su
submitting
substantive
summarizing
suns
superstitious
suprised
surname
susans
sushi
suspecting
sw
sweats
swine
swore
swung
sylia
symbolize
symbolized
sympathizing
synthesis
taiwan
tamer
tampering
tandy
tapestry
tatyana
teary
technician
temperamental
temples
temptress
tending
territories
testicles
ther
thier
thoughtfully
thrashing
timers
timewaster
tobell
tobin
tod
tomlin
tonk
tory
toulon
toupee
tract
traders
travails
tribunal
tributes
tripped
truely
tryst
tutor
ullmann
unapologetic
unceremoniously
unconnected
uncreative
underdogs
undergoing
undergone
underlings
undermining
une
unerotic
unforced
unlocked
unraveled
unrepentant
unscripted
unwitting
uproar
uproariously
upscale
upstaged
ur
urbane
vaccaro
vampyres
vardon
varney
veil
verbose
vibes
videodvd
viennese
violins
virile
visualized
vogel
voights
volonte
waffle
walrus
warlock
warrens
washedup
waster
weighty
whew
whimper
whimsy
whisked
whorehouse
wilds
wile
willfully
winkler
winstone
wiseguy
withdrawal
wo
woken
woolf
wrench
wuhrer
yakima
yardley
zatoichi
zealous
##02
##51
##71
##88
##aan
##abuse
##acies
##acist
##activity
##actress
##actually
##ako
##ald
##ales
##aly
##amine
##anda
##ander
##anities
##arded
##arily
##asian
##asis
##assing
##astic
##athy
##ational
##aturated
##awn
##azier
##bags
##bala
##bang
##bbers
##bbies
##bbit
##bear
##believers
##bender
##biographical
##bited
##bits
##blood
##boing
##books
##boxer
##boyfriend
##brahimi
##breaker
##bred
##cable
##call
##cary
##castle
##ception
##ceptive
##cide
##cified
##cise
##ckers
##cky
##club
##cow
##crew
##cussion
##cutting
##david
##decent
##directors
##doers
##done
##dramatic
##dream
##drug
##dup
##dys
##ece
##ecs
##eil
##eki
##elling
##elt
##enburg
##ences
##eos
##erson
##esh
##esta
##etes
##except
##ffle
##fin
##fle
##fledged
##flicted
##flying
##focused
##forcing
##forming
##found
##fu
##gator
##ggin
##ggly
##girlfriend
##gnition
##goers
##gold
##group
##gth
##haling
##hands
##hee
##heroine
##hhhh
##hook
##hoot
##hots
##hower
##hrman
##hunters
##hunting
##hur
##hurst
##icit
##ifer
##igrated
##ilitated
##imha
##inates
##inator
##ink
##inski
##irl
##isen
##itarian
##itor
##iva
##ived
##ives
##izers
##ject
##jected
##jer
##juring
##kai
##kening
##lade
##lady
##lare
##lbert
##ldi
##lean
##lide
##liff
##linch
##link
##litter
##llar
##lles
##lma
##locks
##lory
##lose
##loyed
##lust
##lz
##mala
##mand
##mill
##minating
##mire
##mit
##mmer
##mor
##moving
##much
##naut
##nco
##ndering
##neer
##nication
##nics
##nist
##nore
##nton
##oa
##oc
##ock
##ogies
##ohan
##oir
##oker
##olds
##oli
##oma
##omania
##ometer
##oner
##oning
##ooping
##oor
##ope
##order
##orman
##ose
##osity
##others
##otic
##ovin
##p3
##paid
##passionate
##pecific
##perhaps
##pled
##ples
##plotted
##pod
##popular
##pos
##poses
##pounding
##pr
##priced
##probably
##psy
##qua
##queen
##quel
##quishing
##quities
##rack
##rc
##rdant
##recognized
##rect
##rged
##richard
##rilling
##rini
##rip
##rl
##roduction
##roker
##role
##rooms
##rose
##rst
##ruce
##ruct
##ruse
##rys
##series
##sexy
##should
##siding
##siness
##sister
##sting
##sto
##suke
##talk
##tance
##tans
##tating
##tem
##tening
##then
##theque
##thropy
##tine
##tis
##titled
##tore
##tortion
##tral
##ttle
##tuned
##tural
##turn
##ucking
##uds
##uffs
##uine
##ulos
##ulsion
##ulting
##ults
##unced
##unciation
##uncing
##urse
##usen
##utations
##uum
##uz
##vale
##vampire
##vee
##vent
##verts
##vice
##villain
##vity
##vocation
##voy
##watching
##weak
##west
##wide
##wits
##witz
##worm
##worn
##yl
##youll
##ype
##zzi
##zzy
02
1520
1900
1912
1923
2022
20something
25th
30th
60searly
750
abundantly
accelerated
acknowledges
actioners
addams
addison
addy
adjacent
advertises
affords
aiding
aileen
airborne
akasha
albuquerque
alls
almodovars
alps
alternatively
alucard
alzheimers
ambivalence
ambivalent
ami
amuses
anachronism
anakin
analog
anderssons
anemic
anesthesia
animatronics
animosity
annabelle
anomaly
anorexic
ante
anwar
apparatus
apprehended
approx
aragorn
aranda
arquettes
asner
assef
assists
atom
atonement
attila
authentically
authoritative
autograph
backlot
backpack
backside
baghdad
bale
ballantine
balzac
bandwagon
bangkok
baptists
barbeau
barbecue
barbs
barge
bark
barring
bathes
beaming
beanstalk
becker
bedknobs
bedside
befitting
bel
belowaverage
bethlehem
bfilm
bickford
bigot
bikos
billboards
billys
bingo
bios
birdie
blackmails
blandness
bleached
bleep
blessings
blindfolded
bloch
bloodsucking
bloopers
boarded
bogarts
boland
bombay
bonded
booming
booths
borzage
bouquet
boyce
braga
bras
bristol
bro
broomsticks
brownstone
bruised
bruises
brushed
buddhism
buffoonery
bulimia
burtynsky
burtynskys
busters
buyer
byrnes
cacoyannis
caddy
cagneys
canutt
capers
cappy
capricious
captor
carelessness
caretakers
carls
carlson
carlys
carmichael
carpathian
caseys
cass
catalina
categorized
catholicism
celebi
celestes
celestine
cemented
centuryfox
chancellor
chants
characterizes
charisse
charless
chavo
cheapen
cheaplooking
cheaters
cheng
childishly
chung
civic
clairvoyant
clandestine
clarissa
clarkson
cleanse
cleaver
clementine
cloaked
cloudy
coated
coats
cockroach
cod
coherency
communicates
complemented
composure
compressed
comprise
compulsion
compulsory
confederacy
confinement
congratulated
consigned
construed
contemptible
contracts
contractual
contributors
contrives
conveyor
cora
corday
cork
corresponding
cortes
courtyard
coyotes
crafts
crappiest
crawled
creighton
crib
cribbins
criticizes
crumble
crushes
culled
cultists
cups
curls
cutaway
cv
cyclops
cyd
cyril
dabney
dancy
danni
darlings
darts
deafening
debris
deceiving
declines
decoy
defenders
delicatessen
delving
demilles
demoted
dempster
deodato
dependence
designated
desolation
deteriorate
detonator
deuce
devastatingly
developers
devoured
dewey
dhawan
dieing
digges
dildo
dine
dipped
directer
directionless
directorscreenwriter
disciplined
discourage
discredited
disenfranchised
disintegration
dismissing
dispense
dispenses
disprove
dissertation
dissuade
distances
disturbs
django
docile
dogg
domesticated
dong
downed
downloading
downwards
dozed
dreamcast
dreamers
drek
drip
driveby
dumbeddown
dumbness
dyson
eagerness
earthshattering
eburne
eccentricities
eccentricity
edelmann
educating
edwin
eeriness
egocentric
eilers
elfman
emails
embarking
empowerment
enfants
englishlanguage
enraptured
enron
enterprising
eon
erected
erin
errand
erstwhile
erudite
erwin
esai
eulogy
eurasian
eurovision
evolutionary
exasperating
excelled
excerpt
exemplified
expend
export
extending
extremists
eyecatching
fabian
fabled
fabrication
factions
faculty
fakelooking
fanbase
fancies
faraway
fatalism
fatalistic
fated
faulted
fav
fecal
felicity
ferdinand
fernandez
ffvii
fiber
fiendish
filmaking
filone
fink
fireman
firode
firstperson
fittingly
flapping
flatter
flatulence
flighty
flings
flint
flirtation
floyds
foam
foiled
folding
font
forbidding
forcefully
foresee
forge
fork
fragility
franklins
fray
freedoms
friedkin
fries
frumpy
fulfil
funfilled
furnace
furnished
fused
gabor
gabriella
galactic
gallipoli
gangland
gargoyles
garson
gass
gawky
gaythemed
gentler
gents
geoff
giggly
gilles
gingold
glamorized
gleaming
globetrotting
glorifying
golddigger
goldoni
gonzales
goodtimes
goring
gottfried
governorgeneral
govt
goyokin
grad
grander
graphical
gravely
greenaways
grimes
grodin
grounding
gruner
guarding
gujarati
gurney
gutted
gwynne
haas
hades
hakuna
halflife
hallie
hallucinogenic
halperin
hamster
handdrawn
handgun
handsomely
handtohand
hanekes
harshness
hash
hayek
headphones
heaping
hearse
hecht
helmer
helmets
herge
hestons
hewlett
highrise
hillarious
hiltons
hindered
hingle
hitandrun
hitherto
hm
hobbs
hobson
hoe
holbrook
homemaker
honeymooners
hooligan
hoon
horemheb
hots
hudsons
humanoids
hundstage
huns
hurling
hygiene
iam
illuminating
imp
imperioli
impersonal
impetus
implemented
improvising
inaccessible
inanity
incarnate
inclination
inconsistency
incorrectness
indahouse
indecent
industries
inert
infectiously
infernal
infiltrating
infomercial
inspite
installed
instalment
instructed
instructive
insufferably
insured
interacts
interminably
interruptions
interstate
intervene
interweaving
intrusion
intuition
inverted
irked
irreverence
ishwar
jai
janus
jerker
jester
joans
jrs
julias
justforkix
justly
kanes
keitaro
kennel
kims
kitt
kkk
knots
koko
kovacs
koyaanisqatsi
kress
krumholtz
labelled
labours
labs
lacey
lain
lakes
lanchester
laraine
laramie
lashes
lassick
latch
launcher
lawler
leach
leanings
lederer
legitimacy
lemonade
lensman
leper
levelheaded
levene
levity
[...]
